{
  "version": "1.0",
  "truncation": {
    "direction": "Right",
    "max_length": 64,
    "strategy": "LongestFirst",
    "stride": 0
  },
  "padding": {
    "strategy": {
      "Fixed": 64
    },
    "direction": "Right",
    "pad_to_multiple_of": null,
    "pad_id": 0,
    "pad_type_id": 0,
    "pad_token": "[PAD]"
  },
  "added_tokens": [
    {
      "id": 0,
      "content": "[PAD]",
      "single_word": false,
      "lstrip": false,
      "rstrip": false,
      "normalized": false,
      "special": true
    },
    {
      "id": 1,
      "content": "[UNK]",
      "single_word": false,
      "lstrip": false,
      "rstrip": false,
      "normalized": false,
      "special": true
    },
    {
      "id": 2,
      "content": "[SOS]",
      "single_word": false,
      "lstrip": false,
      "rstrip": false,
      "normalized": false,
      "special": true
    },
    {
      "id": 3,
      "content": "[EOS]",
      "single_word": false,
      "lstrip": false,
      "rstrip": false,
      "normalized": false,
      "special": true
    },
    {
      "id": 4,
      "content": "[SEP]",
      "single_word": false,
      "lstrip": false,
      "rstrip": false,
      "normalized": false,
      "special": true
    }
  ],
  "normalizer": null,
  "pre_tokenizer": {
    "type": "Metaspace",
    "replacement": "▁",
    "prepend_scheme": "always",
    "split": true
  },
  "post_processor": null,
  "decoder": {
    "type": "Metaspace",
    "replacement": "▁",
    "prepend_scheme": "always",
    "split": true
  },
  "model": {
    "type": "BPE",
    "dropout": null,
    "unk_token": "[UNK]",
    "continuing_subword_prefix": null,
    "end_of_word_suffix": null,
    "fuse_unk": false,
    "byte_fallback": false,
    "ignore_merges": false,
    "vocab": {
      "[PAD]": 0,
      "[UNK]": 1,
      "[SOS]": 2,
      "[EOS]": 3,
      "[SEP]": 4,
      "!": 5,
      "%": 6,
      "'": 7,
      ",": 8,
      "-": 9,
      ".": 10,
      "0": 11,
      "1": 12,
      "2": 13,
      "3": 14,
      "4": 15,
      "5": 16,
      "6": 17,
      "7": 18,
      "8": 19,
      "9": 20,
      ";": 21,
      "?": 22,
      "A": 23,
      "B": 24,
      "C": 25,
      "D": 26,
      "E": 27,
      "L": 28,
      "N": 29,
      "O": 30,
      "P": 31,
      "S": 32,
      "[": 33,
      "]": 34,
      "_": 35,
      "a": 36,
      "c": 37,
      "g": 38,
      "j": 39,
      "k": 40,
      "n": 41,
      "o": 42,
      "s": 43,
      "~": 44,
      "…": 45,
      "▁": 46,
      "ㅊ": 47,
      "ㅋ": 48,
      "ㅎ": 49,
      "ㅜ": 50,
      "ㅠ": 51,
      "가": 52,
      "각": 53,
      "간": 54,
      "갇": 55,
      "갈": 56,
      "감": 57,
      "갑": 58,
      "값": 59,
      "갔": 60,
      "강": 61,
      "갖": 62,
      "같": 63,
      "갚": 64,
      "개": 65,
      "객": 66,
      "갠": 67,
      "갯": 68,
      "갱": 69,
      "걍": 70,
      "걔": 71,
      "거": 72,
      "걱": 73,
      "건": 74,
      "걷": 75,
      "걸": 76,
      "검": 77,
      "겁": 78,
      "것": 79,
      "겉": 80,
      "게": 81,
      "겐": 82,
      "겜": 83,
      "겟": 84,
      "겠": 85,
      "겨": 86,
      "격": 87,
      "겪": 88,
      "견": 89,
      "결": 90,
      "겹": 91,
      "겼": 92,
      "경": 93,
      "곁": 94,
      "계": 95,
      "곗": 96,
      "고": 97,
      "곡": 98,
      "곤": 99,
      "곧": 100,
      "골": 101,
      "곰": 102,
      "곱": 103,
      "곳": 104,
      "공": 105,
      "과": 106,
      "관": 107,
      "광": 108,
      "괘": 109,
      "괜": 110,
      "괴": 111,
      "교": 112,
      "구": 113,
      "국": 114,
      "군": 115,
      "굳": 116,
      "굴": 117,
      "굶": 118,
      "굽": 119,
      "궁": 120,
      "궈": 121,
      "권": 122,
      "궜": 123,
      "귀": 124,
      "귄": 125,
      "귈": 126,
      "귐": 127,
      "규": 128,
      "균": 129,
      "귤": 130,
      "그": 131,
      "극": 132,
      "근": 133,
      "글": 134,
      "긁": 135,
      "금": 136,
      "급": 137,
      "긋": 138,
      "긍": 139,
      "기": 140,
      "긴": 141,
      "길": 142,
      "김": 143,
      "깃": 144,
      "깊": 145,
      "까": 146,
      "깍": 147,
      "깎": 148,
      "깐": 149,
      "깔": 150,
      "깜": 151,
      "깝": 152,
      "깠": 153,
      "깡": 154,
      "깨": 155,
      "깬": 156,
      "깰": 157,
      "깼": 158,
      "꺼": 159,
      "꺽": 160,
      "껄": 161,
      "껏": 162,
      "께": 163,
      "껴": 164,
      "꼈": 165,
      "꼬": 166,
      "꼭": 167,
      "꼰": 168,
      "꼴": 169,
      "꼼": 170,
      "꼿": 171,
      "꽁": 172,
      "꽂": 173,
      "꽃": 174,
      "꽈": 175,
      "꽉": 176,
      "꽝": 177,
      "꽤": 178,
      "꾸": 179,
      "꾹": 180,
      "꾼": 181,
      "꿀": 182,
      "꿈": 183,
      "꿎": 184,
      "꿔": 185,
      "꿧": 186,
      "꿨": 187,
      "꿩": 188,
      "뀌": 189,
      "뀔": 190,
      "끄": 191,
      "끈": 192,
      "끊": 193,
      "끌": 194,
      "끓": 195,
      "끔": 196,
      "끗": 197,
      "끝": 198,
      "끼": 199,
      "낀": 200,
      "낄": 201,
      "낌": 202,
      "나": 203,
      "낙": 204,
      "낚": 205,
      "난": 206,
      "날": 207,
      "남": 208,
      "납": 209,
      "낫": 210,
      "났": 211,
      "낭": 212,
      "낮": 213,
      "낳": 214,
      "내": 215,
      "낸": 216,
      "낼": 217,
      "냄": 218,
      "냅": 219,
      "냈": 220,
      "냉": 221,
      "냐": 222,
      "냥": 223,
      "너": 224,
      "넋": 225,
      "넌": 226,
      "널": 227,
      "넓": 228,
      "넘": 229,
      "넛": 230,
      "넣": 231,
      "네": 232,
      "넥": 233,
      "넷": 234,
      "넹": 235,
      "녀": 236,
      "녁": 237,
      "년": 238,
      "념": 239,
      "녔": 240,
      "녕": 241,
      "노": 242,
      "녹": 243,
      "논": 244,
      "놀": 245,
      "놈": 246,
      "놉": 247,
      "농": 248,
      "높": 249,
      "놓": 250,
      "놔": 251,
      "놨": 252,
      "뇌": 253,
      "뇨": 254,
      "누": 255,
      "눅": 256,
      "눈": 257,
      "눌": 258,
      "눕": 259,
      "눠": 260,
      "눴": 261,
      "뉴": 262,
      "느": 263,
      "는": 264,
      "늘": 265,
      "늙": 266,
      "늠": 267,
      "능": 268,
      "늦": 269,
      "늪": 270,
      "니": 271,
      "닉": 272,
      "닌": 273,
      "닐": 274,
      "님": 275,
      "닝": 276,
      "다": 277,
      "닥": 278,
      "닦": 279,
      "단": 280,
      "닫": 281,
      "달": 282,
      "닮": 283,
      "닳": 284,
      "담": 285,
      "답": 286,
      "닷": 287,
      "당": 288,
      "닿": 289,
      "대": 290,
      "댄": 291,
      "댈": 292,
      "댓": 293,
      "댔": 294,
      "댜": 295,
      "더": 296,
      "덕": 297,
      "던": 298,
      "덜": 299,
      "덤": 300,
      "덥": 301,
      "덧": 302,
      "덩": 303,
      "덮": 304,
      "데": 305,
      "델": 306,
      "뎌": 307,
      "뎠": 308,
      "도": 309,
      "독": 310,
      "돈": 311,
      "돋": 312,
      "돌": 313,
      "돕": 314,
      "동": 315,
      "돼": 316,
      "됐": 317,
      "되": 318,
      "된": 319,
      "될": 320,
      "됨": 321,
      "됩": 322,
      "됬": 323,
      "두": 324,
      "둑": 325,
      "둔": 326,
      "둘": 327,
      "둠": 328,
      "둥": 329,
      "둬": 330,
      "뒀": 331,
      "뒤": 332,
      "뒷": 333,
      "뒹": 334,
      "듀": 335,
      "드": 336,
      "득": 337,
      "든": 338,
      "듣": 339,
      "들": 340,
      "듦": 341,
      "듬": 342,
      "듭": 343,
      "듯": 344,
      "등": 345,
      "디": 346,
      "딘": 347,
      "딛": 348,
      "딜": 349,
      "딧": 350,
      "딨": 351,
      "딩": 352,
      "딪": 353,
      "따": 354,
      "딱": 355,
      "딴": 356,
      "딸": 357,
      "땀": 358,
      "땅": 359,
      "때": 360,
      "땐": 361,
      "땜": 362,
      "땠": 363,
      "땡": 364,
      "떠": 365,
      "떡": 366,
      "떤": 367,
      "떨": 368,
      "떴": 369,
      "떻": 370,
      "떼": 371,
      "뗄": 372,
      "또": 373,
      "똑": 374,
      "똥": 375,
      "뚝": 376,
      "뚫": 377,
      "뚱": 378,
      "뛰": 379,
      "뛴": 380,
      "뜁": 381,
      "뜨": 382,
      "뜬": 383,
      "뜰": 384,
      "뜸": 385,
      "뜻": 386,
      "띄": 387,
      "띠": 388,
      "띰": 389,
      "띵": 390,
      "라": 391,
      "락": 392,
      "란": 393,
      "랄": 394,
      "람": 395,
      "랍": 396,
      "랐": 397,
      "랑": 398,
      "랖": 399,
      "래": 400,
      "랙": 401,
      "랜": 402,
      "랠": 403,
      "램": 404,
      "랫": 405,
      "랬": 406,
      "랭": 407,
      "량": 408,
      "러": 409,
      "런": 410,
      "럴": 411,
      "럼": 412,
      "럽": 413,
      "럿": 414,
      "렀": 415,
      "렁": 416,
      "렇": 417,
      "레": 418,
      "렉": 419,
      "렌": 420,
      "렐": 421,
      "렘": 422,
      "렛": 423,
      "렜": 424,
      "려": 425,
      "력": 426,
      "련": 427,
      "렬": 428,
      "렴": 429,
      "렵": 430,
      "렷": 431,
      "렸": 432,
      "령": 433,
      "례": 434,
      "로": 435,
      "록": 436,
      "론": 437,
      "롤": 438,
      "롭": 439,
      "롯": 440,
      "롱": 441,
      "뢰": 442,
      "료": 443,
      "루": 444,
      "룩": 445,
      "룰": 446,
      "룸": 447,
      "룽": 448,
      "뤄": 449,
      "류": 450,
      "률": 451,
      "르": 452,
      "륵": 453,
      "른": 454,
      "를": 455,
      "름": 456,
      "릅": 457,
      "릇": 458,
      "릎": 459,
      "리": 460,
      "릭": 461,
      "린": 462,
      "릴": 463,
      "림": 464,
      "립": 465,
      "릿": 466,
      "링": 467,
      "마": 468,
      "막": 469,
      "만": 470,
      "많": 471,
      "말": 472,
      "맘": 473,
      "맙": 474,
      "맛": 475,
      "망": 476,
      "맞": 477,
      "맡": 478,
      "매": 479,
      "맥": 480,
      "맨": 481,
      "맴": 482,
      "맷": 483,
      "맹": 484,
      "맺": 485,
      "머": 486,
      "먹": 487,
      "먼": 488,
      "멀": 489,
      "멈": 490,
      "멋": 491,
      "멍": 492,
      "메": 493,
      "멘": 494,
      "멤": 495,
      "며": 496,
      "면": 497,
      "명": 498,
      "몇": 499,
      "모": 500,
      "목": 501,
      "몫": 502,
      "몬": 503,
      "몰": 504,
      "몸": 505,
      "몹": 506,
      "못": 507,
      "몽": 508,
      "묘": 509,
      "무": 510,
      "묵": 511,
      "문": 512,
      "묻": 513,
      "물": 514,
      "뭇": 515,
      "뭐": 516,
      "뭔": 517,
      "뭘": 518,
      "뭣": 519,
      "미": 520,
      "민": 521,
      "믿": 522,
      "밀": 523,
      "밉": 524,
      "밌": 525,
      "밍": 526,
      "밑": 527,
      "바": 528,
      "박": 529,
      "밖": 530,
      "반": 531,
      "받": 532,
      "발": 533,
      "밝": 534,
      "밟": 535,
      "밤": 536,
      "밥": 537,
      "방": 538,
      "밭": 539,
      "배": 540,
      "백": 541,
      "밸": 542,
      "뱃": 543,
      "뱄": 544,
      "뱉": 545,
      "버": 546,
      "벅": 547,
      "번": 548,
      "벌": 549,
      "범": 550,
      "법": 551,
      "벗": 552,
      "벚": 553,
      "베": 554,
      "벤": 555,
      "벨": 556,
      "벴": 557,
      "벼": 558,
      "벽": 559,
      "변": 560,
      "별": 561,
      "볍": 562,
      "병": 563,
      "볕": 564,
      "보": 565,
      "복": 566,
      "볶": 567,
      "본": 568,
      "볼": 569,
      "봄": 570,
      "봅": 571,
      "봇": 572,
      "봉": 573,
      "봐": 574,
      "봤": 575,
      "뵈": 576,
      "부": 577,
      "북": 578,
      "분": 579,
      "불": 580,
      "붓": 581,
      "붙": 582,
      "뷔": 583,
      "브": 584,
      "블": 585,
      "비": 586,
      "빈": 587,
      "빌": 588,
      "빔": 589,
      "빗": 590,
      "빙": 591,
      "빚": 592,
      "빛": 593,
      "빠": 594,
      "빡": 595,
      "빨": 596,
      "빴": 597,
      "빵": 598,
      "빼": 599,
      "빽": 600,
      "뺄": 601,
      "뺏": 602,
      "뻐": 603,
      "뻑": 604,
      "뻔": 605,
      "뻤": 606,
      "뻥": 607,
      "뽀": 608,
      "뽑": 609,
      "뽕": 610,
      "뿅": 611,
      "뿌": 612,
      "뿍": 613,
      "뿐": 614,
      "쁘": 615,
      "쁜": 616,
      "쁠": 617,
      "쁨": 618,
      "삐": 619,
      "삔": 620,
      "사": 621,
      "삭": 622,
      "산": 623,
      "살": 624,
      "삶": 625,
      "삼": 626,
      "삿": 627,
      "샀": 628,
      "상": 629,
      "새": 630,
      "색": 631,
      "샐": 632,
      "샘": 633,
      "샜": 634,
      "생": 635,
      "샤": 636,
      "서": 637,
      "석": 638,
      "섞": 639,
      "선": 640,
      "섣": 641,
      "설": 642,
      "섬": 643,
      "섭": 644,
      "섯": 645,
      "섰": 646,
      "성": 647,
      "세": 648,
      "섹": 649,
      "센": 650,
      "셀": 651,
      "셔": 652,
      "션": 653,
      "셨": 654,
      "소": 655,
      "속": 656,
      "손": 657,
      "솔": 658,
      "송": 659,
      "쇠": 660,
      "쇼": 661,
      "숍": 662,
      "숏": 663,
      "수": 664,
      "숙": 665,
      "순": 666,
      "술": 667,
      "숨": 668,
      "숫": 669,
      "숭": 670,
      "쉬": 671,
      "쉴": 672,
      "쉼": 673,
      "쉽": 674,
      "슈": 675,
      "스": 676,
      "슨": 677,
      "슬": 678,
      "슴": 679,
      "습": 680,
      "슷": 681,
      "승": 682,
      "시": 683,
      "식": 684,
      "신": 685,
      "실": 686,
      "싫": 687,
      "심": 688,
      "십": 689,
      "싱": 690,
      "싶": 691,
      "싸": 692,
      "싹": 693,
      "싼": 694,
      "쌀": 695,
      "쌈": 696,
      "쌍": 697,
      "쌓": 698,
      "쌩": 699,
      "써": 700,
      "썩": 701,
      "썰": 702,
      "썸": 703,
      "썹": 704,
      "썼": 705,
      "쎄": 706,
      "쎈": 707,
      "쎌": 708,
      "쏘": 709,
      "쏜": 710,
      "쏟": 711,
      "쏠": 712,
      "쐬": 713,
      "쑤": 714,
      "쑥": 715,
      "쓰": 716,
      "쓴": 717,
      "쓸": 718,
      "씀": 719,
      "씁": 720,
      "씌": 721,
      "씨": 722,
      "씩": 723,
      "씰": 724,
      "씸": 725,
      "씹": 726,
      "씻": 727,
      "씽": 728,
      "아": 729,
      "악": 730,
      "안": 731,
      "앉": 732,
      "않": 733,
      "알": 734,
      "압": 735,
      "앗": 736,
      "았": 737,
      "앙": 738,
      "앞": 739,
      "애": 740,
      "액": 741,
      "앨": 742,
      "앱": 743,
      "야": 744,
      "약": 745,
      "얇": 746,
      "양": 747,
      "얘": 748,
      "어": 749,
      "억": 750,
      "언": 751,
      "얻": 752,
      "얼": 753,
      "얽": 754,
      "엄": 755,
      "업": 756,
      "없": 757,
      "엇": 758,
      "었": 759,
      "엉": 760,
      "엊": 761,
      "에": 762,
      "엔": 763,
      "엘": 764,
      "엠": 765,
      "엣": 766,
      "여": 767,
      "역": 768,
      "엮": 769,
      "연": 770,
      "열": 771,
      "염": 772,
      "엽": 773,
      "엿": 774,
      "였": 775,
      "영": 776,
      "옆": 777,
      "옇": 778,
      "예": 779,
      "옛": 780,
      "오": 781,
      "옥": 782,
      "온": 783,
      "올": 784,
      "옮": 785,
      "옳": 786,
      "옴": 787,
      "옵": 788,
      "옷": 789,
      "와": 790,
      "완": 791,
      "왓": 792,
      "왔": 793,
      "왕": 794,
      "왜": 795,
      "왠": 796,
      "왤": 797,
      "외": 798,
      "왼": 799,
      "욌": 800,
      "요": 801,
      "욕": 802,
      "욜": 803,
      "용": 804,
      "우": 805,
      "욱": 806,
      "운": 807,
      "울": 808,
      "움": 809,
      "웁": 810,
      "웃": 811,
      "워": 812,
      "원": 813,
      "월": 814,
      "웠": 815,
      "웨": 816,
      "웬": 817,
      "웹": 818,
      "웽": 819,
      "위": 820,
      "윗": 821,
      "윙": 822,
      "유": 823,
      "육": 824,
      "윤": 825,
      "율": 826,
      "으": 827,
      "은": 828,
      "을": 829,
      "음": 830,
      "응": 831,
      "의": 832,
      "이": 833,
      "익": 834,
      "인": 835,
      "일": 836,
      "읽": 837,
      "잃": 838,
      "임": 839,
      "입": 840,
      "잇": 841,
      "있": 842,
      "잊": 843,
      "잌": 844,
      "자": 845,
      "작": 846,
      "잔": 847,
      "잖": 848,
      "잘": 849,
      "잠": 850,
      "잡": 851,
      "잤": 852,
      "장": 853,
      "잦": 854,
      "재": 855,
      "잼": 856,
      "잿": 857,
      "쟁": 858,
      "저": 859,
      "적": 860,
      "전": 861,
      "절": 862,
      "젊": 863,
      "점": 864,
      "접": 865,
      "젔": 866,
      "정": 867,
      "젖": 868,
      "제": 869,
      "젝": 870,
      "젠": 871,
      "젤": 872,
      "젯": 873,
      "져": 874,
      "젹": 875,
      "졋": 876,
      "졌": 877,
      "조": 878,
      "족": 879,
      "존": 880,
      "졸": 881,
      "좀": 882,
      "좁": 883,
      "종": 884,
      "좋": 885,
      "좌": 886,
      "죄": 887,
      "죠": 888,
      "주": 889,
      "죽": 890,
      "준": 891,
      "줄": 892,
      "줌": 893,
      "줍": 894,
      "중": 895,
      "줘": 896,
      "줬": 897,
      "쥐": 898,
      "쥬": 899,
      "즈": 900,
      "즉": 901,
      "즐": 902,
      "즘": 903,
      "증": 904,
      "지": 905,
      "직": 906,
      "진": 907,
      "질": 908,
      "짐": 909,
      "집": 910,
      "짓": 911,
      "징": 912,
      "짚": 913,
      "짜": 914,
      "짝": 915,
      "짠": 916,
      "짤": 917,
      "짧": 918,
      "짬": 919,
      "짰": 920,
      "짱": 921,
      "째": 922,
      "짼": 923,
      "쨌": 924,
      "쩌": 925,
      "쩍": 926,
      "쩐": 927,
      "쩔": 928,
      "쩝": 929,
      "쩡": 930,
      "쪄": 931,
      "쪘": 932,
      "쪼": 933,
      "쪽": 934,
      "쫄": 935,
      "쫌": 936,
      "쫙": 937,
      "쭈": 938,
      "쭉": 939,
      "쭤": 940,
      "쯤": 941,
      "찌": 942,
      "찍": 943,
      "찐": 944,
      "찔": 945,
      "찜": 946,
      "찝": 947,
      "찡": 948,
      "찢": 949,
      "차": 950,
      "착": 951,
      "찬": 952,
      "찮": 953,
      "찰": 954,
      "참": 955,
      "찹": 956,
      "찼": 957,
      "창": 958,
      "찾": 959,
      "채": 960,
      "책": 961,
      "챔": 962,
      "챗": 963,
      "챘": 964,
      "챙": 965,
      "처": 966,
      "척": 967,
      "천": 968,
      "철": 969,
      "첨": 970,
      "첩": 971,
      "첫": 972,
      "청": 973,
      "체": 974,
      "쳇": 975,
      "쳐": 976,
      "쳤": 977,
      "초": 978,
      "촉": 979,
      "촌": 980,
      "총": 981,
      "촬": 982,
      "최": 983,
      "추": 984,
      "축": 985,
      "춘": 986,
      "출": 987,
      "춤": 988,
      "춥": 989,
      "충": 990,
      "춰": 991,
      "췄": 992,
      "취": 993,
      "츄": 994,
      "츠": 995,
      "측": 996,
      "층": 997,
      "치": 998,
      "칙": 999,
      "친": 1000,
      "칠": 1001,
      "침": 1002,
      "칩": 1003,
      "칫": 1004,
      "칭": 1005,
      "카": 1006,
      "칼": 1007,
      "캐": 1008,
      "캔": 1009,
      "캬": 1010,
      "커": 1011,
      "컥": 1012,
      "컨": 1013,
      "컴": 1014,
      "컷": 1015,
      "컸": 1016,
      "케": 1017,
      "켓": 1018,
      "켜": 1019,
      "켠": 1020,
      "켰": 1021,
      "코": 1022,
      "콕": 1023,
      "콘": 1024,
      "콜": 1025,
      "콤": 1026,
      "콧": 1027,
      "콩": 1028,
      "쾌": 1029,
      "쿠": 1030,
      "쿨": 1031,
      "쿵": 1032,
      "쿼": 1033,
      "퀴": 1034,
      "큐": 1035,
      "크": 1036,
      "큰": 1037,
      "클": 1038,
      "큼": 1039,
      "킁": 1040,
      "키": 1041,
      "킥": 1042,
      "킨": 1043,
      "킬": 1044,
      "킴": 1045,
      "킹": 1046,
      "타": 1047,
      "탁": 1048,
      "탄": 1049,
      "탈": 1050,
      "탐": 1051,
      "탓": 1052,
      "탔": 1053,
      "탕": 1054,
      "태": 1055,
      "택": 1056,
      "터": 1057,
      "턱": 1058,
      "턴": 1059,
      "털": 1060,
      "텀": 1061,
      "텁": 1062,
      "텄": 1063,
      "텅": 1064,
      "테": 1065,
      "텍": 1066,
      "텐": 1067,
      "텔": 1068,
      "템": 1069,
      "텨": 1070,
      "텻": 1071,
      "텼": 1072,
      "토": 1073,
      "톡": 1074,
      "톤": 1075,
      "톱": 1076,
      "통": 1077,
      "퇴": 1078,
      "투": 1079,
      "툭": 1080,
      "툰": 1081,
      "툴": 1082,
      "툼": 1083,
      "퉁": 1084,
      "퉜": 1085,
      "튀": 1086,
      "튜": 1087,
      "트": 1088,
      "특": 1089,
      "틀": 1090,
      "틈": 1091,
      "틋": 1092,
      "티": 1093,
      "틱": 1094,
      "팀": 1095,
      "팁": 1096,
      "팅": 1097,
      "파": 1098,
      "팍": 1099,
      "판": 1100,
      "팔": 1101,
      "팠": 1102,
      "패": 1103,
      "팩": 1104,
      "팬": 1105,
      "팸": 1106,
      "퍼": 1107,
      "펑": 1108,
      "페": 1109,
      "펨": 1110,
      "펭": 1111,
      "펴": 1112,
      "편": 1113,
      "평": 1114,
      "폐": 1115,
      "포": 1116,
      "폭": 1117,
      "폰": 1118,
      "폼": 1119,
      "퐈": 1120,
      "표": 1121,
      "푸": 1122,
      "푹": 1123,
      "푼": 1124,
      "풀": 1125,
      "품": 1126,
      "풋": 1127,
      "풍": 1128,
      "퓨": 1129,
      "프": 1130,
      "픈": 1131,
      "플": 1132,
      "픔": 1133,
      "픕": 1134,
      "피": 1135,
      "핀": 1136,
      "필": 1137,
      "핍": 1138,
      "핏": 1139,
      "핑": 1140,
      "하": 1141,
      "학": 1142,
      "한": 1143,
      "할": 1144,
      "함": 1145,
      "합": 1146,
      "핫": 1147,
      "항": 1148,
      "해": 1149,
      "핸": 1150,
      "햇": 1151,
      "했": 1152,
      "행": 1153,
      "햐": 1154,
      "향": 1155,
      "허": 1156,
      "헉": 1157,
      "헌": 1158,
      "헐": 1159,
      "험": 1160,
      "헛": 1161,
      "헤": 1162,
      "헥": 1163,
      "헬": 1164,
      "헷": 1165,
      "헹": 1166,
      "혀": 1167,
      "현": 1168,
      "혈": 1169,
      "혐": 1170,
      "협": 1171,
      "혔": 1172,
      "형": 1173,
      "혜": 1174,
      "호": 1175,
      "혹": 1176,
      "혼": 1177,
      "홀": 1178,
      "홈": 1179,
      "화": 1180,
      "확": 1181,
      "환": 1182,
      "활": 1183,
      "홧": 1184,
      "황": 1185,
      "회": 1186,
      "획": 1187,
      "효": 1188,
      "후": 1189,
      "훅": 1190,
      "훈": 1191,
      "훌": 1192,
      "훔": 1193,
      "휘": 1194,
      "휙": 1195,
      "휨": 1196,
      "휴": 1197,
      "흐": 1198,
      "흑": 1199,
      "흔": 1200,
      "흘": 1201,
      "흠": 1202,
      "흡": 1203,
      "흥": 1204,
      "희": 1205,
      "흰": 1206,
      "히": 1207,
      "힌": 1208,
      "힐": 1209,
      "힘": 1210,
      "힙": 1211,
      "▁[": 1212,
      "OS": 1213,
      "▁[S": 1214,
      "OS]": 1215,
      "EP": 1216,
      "EOS]": 1217,
      "▁[EOS]": 1218,
      "▁[SOS]": 1219,
      "▁[SEP": 1220,
      "▁[SEP]": 1221,
      "요.": 1222,
      "세요.": 1223,
      "▁사": 1224,
      "▁좋": 1225,
      "▁있": 1226,
      "▁이": 1227,
      "▁거": 1228,
      "하는": 1229,
      "보세요.": 1230,
      "▁그": 1231,
      "▁나": 1232,
      "▁아": 1233,
      "▁마": 1234,
      "예요.": 1235,
      "▁사람": 1236,
      "▁좋아": 1237,
      "어요.": 1238,
      "▁같": 1239,
      "▁다": 1240,
      "▁거예요.": 1241,
      "▁생": 1242,
      "▁하": 1243,
      "▁어": 1244,
      "▁가": 1245,
      "▁안": 1246,
      "▁해": 1247,
      "▁사랑": 1248,
      "▁수": 1249,
      "네요.": 1250,
      "다.": 1251,
      "죠.": 1252,
      "▁연": 1253,
      "▁없": 1254,
      "▁생각": 1255,
      "▁힘": 1256,
      "친구": 1257,
      "▁자": 1258,
      "▁잘": 1259,
      "▁싶": 1260,
      "▁여": 1261,
      "▁말": 1262,
      "▁많": 1263,
      "봐요.": 1264,
      "▁남": 1265,
      "▁너": 1266,
      "▁것": 1267,
      "▁만": 1268,
      "는데": 1269,
      "▁마음": 1270,
      "▁시": 1271,
      "▁않": 1272,
      "▁내": 1273,
      "▁기": 1274,
      "▁보": 1275,
      "▁지": 1276,
      "▁너무": 1277,
      "▁좋아하는": 1278,
      "니다.": 1279,
      "아요.": 1280,
      "까?": 1281,
      "▁오": 1282,
      "▁바": 1283,
      "▁더": 1284,
      "해보세요.": 1285,
      "▁이별": 1286,
      "▁정": 1287,
      "▁헤": 1288,
      "▁연락": 1289,
      "하고": 1290,
      "▁일": 1291,
      "▁헤어": 1292,
      "▁짝": 1293,
      "▁고": 1294,
      "▁여자": 1295,
      "으면": 1296,
      "▁있을": 1297,
      "▁남자": 1298,
      "▁되": 1299,
      "▁썸": 1300,
      "▁알": 1301,
      "▁힘들": 1302,
      "▁모": 1303,
      "▁많이": 1304,
      "나봐요.": 1305,
      "▁좋은": 1306,
      "▁한": 1307,
      "하지": 1308,
      "▁상": 1309,
      "▁시간": 1310,
      "▁게": 1311,
      "▁무": 1312,
      "으로": 1313,
      "▁사람이": 1314,
      "에요.": 1315,
      "▁때": 1316,
      "▁저": 1317,
      "▁친구": 1318,
      "▁건": 1319,
      "한테": 1320,
      "에서": 1321,
      "▁결": 1322,
      "▁못": 1323,
      "▁좀": 1324,
      "▁주": 1325,
      "▁전": 1326,
      "▁먹": 1327,
      "▁싶어": 1328,
      "▁중": 1329,
      "겠어요.": 1330,
      "▁같아요.": 1331,
      "▁부": 1332,
      "▁인": 1333,
      "▁조": 1334,
      "해요.": 1335,
      "▁받": 1336,
      "▁있어요.": 1337,
      "▁대": 1338,
      "하면": 1339,
      "▁당": 1340,
      "▁선": 1341,
      "▁같아": 1342,
      "▁오늘": 1343,
      "▁뭐": 1344,
      "▁살": 1345,
      "▁후": 1346,
      "▁할": 1347,
      "▁될": 1348,
      "▁이제": 1349,
      "▁제": 1350,
      "어.": 1351,
      "▁괜": 1352,
      "하세요.": 1353,
      "▁만나": 1354,
      "하게": 1355,
      "▁걸": 1356,
      "이에요.": 1357,
      "겠네요.": 1358,
      "주세요.": 1359,
      "▁미": 1360,
      "▁자신": 1361,
      "▁괜찮": 1362,
      "▁진": 1363,
      "▁좋을": 1364,
      "▁들": 1365,
      "까요.": 1366,
      "에게": 1367,
      "▁끝": 1368,
      "▁드": 1369,
      "▁아니": 1370,
      "겠지": 1371,
      "▁소": 1372,
      "라고": 1373,
      "▁감": 1374,
      "▁마세요.": 1375,
      "▁잊": 1376,
      "▁필": 1377,
      "는게": 1378,
      "▁비": 1379,
      "▁연애": 1380,
      "▁내가": 1381,
      "▁하는": 1382,
      "▁마음이": 1383,
      "▁여자친구": 1384,
      "▁있는": 1385,
      "▁모르": 1386,
      "▁필요": 1387,
      "▁스": 1388,
      "▁왜": 1389,
      "다면": 1390,
      "▁다른": 1391,
      "▁해보세요.": 1392,
      "▁집": 1393,
      "다고": 1394,
      "▁공": 1395,
      "▁혼": 1396,
      "▁타": 1397,
      "▁어떻": 1398,
      "▁짝남": 1399,
      "가봐요.": 1400,
      "▁시간이": 1401,
      "게요.": 1402,
      "▁물": 1403,
      "▁예": 1404,
      "니다": 1405,
      "▁헤어진": 1406,
      "▁어떻게": 1407,
      "▁도": 1408,
      "▁차": 1409,
      "▁남자친구": 1410,
      "▁돼": 1411,
      "▁행": 1412,
      "▁당신": 1413,
      "▁맞": 1414,
      "▁신": 1415,
      "▁다시": 1416,
      "▁날": 1417,
      "▁서": 1418,
      "▁방": 1419,
      "▁관": 1420,
      "해도": 1421,
      "▁애": 1422,
      "▁우": 1423,
      "▁했": 1424,
      "인데": 1425,
      "네.": 1426,
      "요?": 1427,
      "▁하고": 1428,
      "▁노": 1429,
      "들이": 1430,
      "▁지금": 1431,
      "▁정말": 1432,
      "▁결혼": 1433,
      "▁또": 1434,
      "▁재": 1435,
      "▁수도": 1436,
      "▁잠": 1437,
      "사랑": 1438,
      "▁눈": 1439,
      "▁혼자": 1440,
      "▁계": 1441,
      "▁참": 1442,
      "▁싫": 1443,
      "▁있어": 1444,
      "▁정리": 1445,
      "▁준": 1446,
      "▁찾": 1447,
      "▁없어": 1448,
      "▁것도": 1449,
      "▁고민": 1450,
      "▁따": 1451,
      "▁그런": 1452,
      "▁새": 1453,
      "▁기다": 1454,
      "▁조금": 1455,
      "어보세요.": 1456,
      "이네요.": 1457,
      "▁중요": 1458,
      "▁놀": 1459,
      "은데": 1460,
      "▁행복": 1461,
      "겠어": 1462,
      "▁쉬": 1463,
      "▁얼": 1464,
      "▁위": 1465,
      "▁확": 1466,
      "렇게": 1467,
      "▁달": 1468,
      "▁언": 1469,
      "▁의": 1470,
      "▁같이": 1471,
      "겠죠.": 1472,
      "▁아직": 1473,
      "▁데": 1474,
      "습니다.": 1475,
      "▁두": 1476,
      "▁반": 1477,
      "▁성": 1478,
      "해야": 1479,
      "지도": 1480,
      "▁먼": 1481,
      "지만": 1482,
      "▁준비": 1483,
      "▁편": 1484,
      "이라": 1485,
      "▁힘든": 1486,
      "▁배": 1487,
      "▁피": 1488,
      "라요.": 1489,
      "▁아무": 1490,
      "▁보고": 1491,
      "▁짝사랑": 1492,
      "거예요.": 1493,
      "▁자꾸": 1494,
      "▁그럴": 1495,
      "▁짝녀": 1496,
      "▁선물": 1497,
      "▁찾아": 1498,
      "▁맛": 1499,
      "▁추": 1500,
      "요!": 1501,
      "▁싶다": 1502,
      "▁해야": 1503,
      "▁후회": 1504,
      "▁진짜": 1505,
      "보다": 1506,
      "▁변": 1507,
      "▁술": 1508,
      "▁카": 1509,
      "니까요.": 1510,
      "▁없어요.": 1511,
      "▁먼저": 1512,
      "▁꿈": 1513,
      "▁느": 1514,
      "▁동": 1515,
      "▁없는": 1516,
      "▁직": 1517,
      "해서": 1518,
      "▁헤어지": 1519,
      "▁고백": 1520,
      "▁제가": 1521,
      "▁방법": 1522,
      "봅니다.": 1523,
      "▁저도": 1524,
      "▁헤어진지": 1525,
      "▁돼요.": 1526,
      "▁몰": 1527,
      "▁운": 1528,
      "까지": 1529,
      "이야": 1530,
      "이죠.": 1531,
      "▁충": 1532,
      "▁시작": 1533,
      "▁바랄": 1534,
      "▁누": 1535,
      "▁불": 1536,
      "▁올": 1537,
      "▁적": 1538,
      "▁사귀": 1539,
      "▁화": 1540,
      "▁서로": 1541,
      "인가": 1542,
      "▁감정": 1543,
      "▁계속": 1544,
      "▁일이": 1545,
      "▁돌": 1546,
      "▁심": 1547,
      "면서": 1548,
      "▁마음을": 1549,
      "▁기분": 1550,
      "▁바랄게요.": 1551,
      "▁돈": 1552,
      "▁문": 1553,
      "▁버": 1554,
      "▁나를": 1555,
      "▁귀": 1556,
      "▁답": 1557,
      "에는": 1558,
      "해주세요.": 1559,
      "▁받아": 1560,
      "▁여자친구가": 1561,
      "▁1": 1562,
      "대로": 1563,
      "▁가능": 1564,
      "▁먹고": 1565,
      "▁공부": 1566,
      "▁매": 1567,
      "려고": 1568,
      "야기": 1569,
      "▁이야기": 1570,
      "▁힘드": 1571,
      "▁들어": 1572,
      "보는": 1573,
      "▁이상": 1574,
      "▁아닌": 1575,
      "▁하나": 1576,
      "▁머": 1577,
      "▁알아": 1578,
      "▁실": 1579,
      "기가": 1580,
      "야지": 1581,
      "▁그녀": 1582,
      "▁만들": 1583,
      "▁속": 1584,
      "▁떨": 1585,
      "▁줄": 1586,
      "해?": 1587,
      "▁하지": 1588,
      "▁하세요.": 1589,
      "▁회": 1590,
      "이었": 1591,
      "지는": 1592,
      "▁걱": 1593,
      "▁믿": 1594,
      "다는": 1595,
      "▁좋아요.": 1596,
      "▁걱정": 1597,
      "▁간": 1598,
      "▁떠": 1599,
      "▁왔": 1600,
      "▁보세요.": 1601,
      "이트": 1602,
      "▁많은": 1603,
      "▁않아요.": 1604,
      "▁신경": 1605,
      "▁세": 1606,
      "▁취": 1607,
      "랍니다.": 1608,
      "▁사랑하는": 1609,
      "▁남자친구가": 1610,
      "리는": 1611,
      "▁쓰": 1612,
      "했어": 1613,
      "▁기억": 1614,
      "▁입": 1615,
      "▁표": 1616,
      "▁함": 1617,
      "▁현": 1618,
      "습니다": 1619,
      "▁생각해요.": 1620,
      "▁상처": 1621,
      "▁분": 1622,
      "하기": 1623,
      "▁그래": 1624,
      "▁곳": 1625,
      "▁뭘": 1626,
      "▁학": 1627,
      "▁하루": 1628,
      "▁어떤": 1629,
      "▁않을": 1630,
      "▁싫어": 1631,
      "▁맘": 1632,
      "니까": 1633,
      "합니다.": 1634,
      "▁바랍니다.": 1635,
      "자고": 1636,
      "▁축": 1637,
      "▁2": 1638,
      "▁놓": 1639,
      "▁장": 1640,
      "로운": 1641,
      "하는게": 1642,
      "▁사랑이": 1643,
      "▁상대": 1644,
      "▁관심": 1645,
      "▁맛있": 1646,
      "▁영": 1647,
      "▁원": 1648,
      "스러": 1649,
      "이랑": 1650,
      "▁있으면": 1651,
      "▁나만": 1652,
      "▁점": 1653,
      "▁커": 1654,
      "인지": 1655,
      "할까": 1656,
      "▁좋죠.": 1657,
      "▁해요.": 1658,
      "▁무슨": 1659,
      "▁약": 1660,
      "다가": 1661,
      "부터": 1662,
      "할까?": 1663,
      "▁있었": 1664,
      "▁사람은": 1665,
      "▁어떨": 1666,
      "▁여행": 1667,
      "▁말해보세요.": 1668,
      "▁과": 1669,
      "▁앞": 1670,
      "적인": 1671,
      "▁이유": 1672,
      "▁대화": 1673,
      "▁드세요.": 1674,
      "▁물어": 1675,
      "▁언제": 1676,
      "▁충분": 1677,
      "▁머리": 1678,
      "▁궁": 1679,
      "▁싸": 1680,
      "▁엄": 1681,
      "텐데": 1682,
      "▁좋겠": 1683,
      "▁이렇게": 1684,
      "▁결정": 1685,
      "▁함께": 1686,
      "▁쉽": 1687,
      "▁슬": 1688,
      "▁외": 1689,
      "▁용": 1690,
      "▁좋겠어요.": 1691,
      "▁안돼": 1692,
      "▁자신을": 1693,
      "▁데이트": 1694,
      "▁카톡": 1695,
      "가는": 1696,
      "▁많아": 1697,
      "▁힘들어": 1698,
      "▁친구가": 1699,
      "▁선택": 1700,
      "▁표현": 1701,
      "▁궁금": 1702,
      "▁됐": 1703,
      "▁설": 1704,
      "기도": 1705,
      "나?": 1706,
      "▁있는데": 1707,
      "▁그냥": 1708,
      "▁안되": 1709,
      "▁해도": 1710,
      "▁여친": 1711,
      "▁헤어졌": 1712,
      "라도": 1713,
      "입니다.": 1714,
      "지?": 1715,
      "하죠.": 1716,
      "▁생각해보세요.": 1717,
      "▁않는": 1718,
      "▁미련": 1719,
      "▁3": 1720,
      "▁길": 1721,
      "▁발": 1722,
      "▁별": 1723,
      "▁요": 1724,
      "▁잡": 1725,
      "▁챙": 1726,
      "▁최": 1727,
      "처럼": 1728,
      "▁오래": 1729,
      "▁몰라요.": 1730,
      "▁단": 1731,
      "▁듯": 1732,
      "▁치": 1733,
      "▁호": 1734,
      "해.": 1735,
      "▁생겼": 1736,
      "▁내일": 1737,
      "▁한달": 1738,
      "▁부담": 1739,
      "▁될까?": 1740,
      "겠지만": 1741,
      "▁새로운": 1742,
      "▁순": 1743,
      "▁말고": 1744,
      "▁타는": 1745,
      "▁노력": 1746,
      "어도": 1747,
      "해주": 1748,
      "▁이해": 1749,
      "▁아프": 1750,
      "▁가고": 1751,
      "▁운동": 1752,
      "▁돌아": 1753,
      "▁질": 1754,
      "▁휴": 1755,
      "리고": 1756,
      "트레": 1757,
      "▁사람을": 1758,
      "▁다가": 1759,
      "▁직접": 1760,
      "▁열": 1761,
      "개월": 1762,
      "▁어떡": 1763,
      "▁사랑은": 1764,
      "▁않았": 1765,
      "▁보내": 1766,
      "▁괜찮아": 1767,
      "▁아니에요.": 1768,
      "▁스트레": 1769,
      "▁따라": 1770,
      "▁경": 1771,
      "▁볼": 1772,
      "▁즐": 1773,
      "▁항": 1774,
      "▁그만": 1775,
      "▁나한테": 1776,
      "▁하면": 1777,
      "▁어디": 1778,
      "▁이별을": 1779,
      "▁회사": 1780,
      "▁항상": 1781,
      "▁구": 1782,
      "▁늦": 1783,
      "▁벌": 1784,
      "▁복": 1785,
      "▁죽": 1786,
      "거나": 1787,
      "까요?": 1788,
      "▁생각나": 1789,
      "▁잘못": 1790,
      "▁만큼": 1791,
      "▁않아": 1792,
      "▁썸남": 1793,
      "▁인연": 1794,
      "▁번": 1795,
      "▁첫": 1796,
      "나봐": 1797,
      "했던": 1798,
      "▁이젠": 1799,
      "▁같은데": 1800,
      "▁때문": 1801,
      "▁조심": 1802,
      "▁재미": 1803,
      "▁힘드네": 1804,
      "▁깨": 1805,
      "▁막": 1806,
      "▁몸": 1807,
      "나봅니다.": 1808,
      "▁그러": 1809,
      "▁저는": 1810,
      "▁달라": 1811,
      "▁멋": 1812,
      "거라": 1813,
      "을까?": 1814,
      "해지": 1815,
      "▁생각을": 1816,
      "▁싶은": 1817,
      "▁남친": 1818,
      "▁상황": 1819,
      "▁소개": 1820,
      "▁누구": 1821,
      "▁신경쓰": 1822,
      "▁처": 1823,
      "이나": 1824,
      "적으로": 1825,
      "하네": 1826,
      "▁좋겠네요.": 1827,
      "하는데": 1828,
      "▁아파": 1829,
      "▁어려": 1830,
      "▁지나": 1831,
      "▁챙겨": 1832,
      "▁완": 1833,
      "▁유": 1834,
      "했는데": 1835,
      "▁생각이": 1836,
      "▁만날": 1837,
      "▁있을까?": 1838,
      "▁주세요.": 1839,
      "▁전화": 1840,
      "▁인생": 1841,
      "겠지?": 1842,
      "▁짝남이": 1843,
      "▁도움": 1844,
      "▁노래": 1845,
      "▁덜": 1846,
      "보고": 1847,
      "습관": 1848,
      "았는데": 1849,
      "인가봐요.": 1850,
      "▁그렇게": 1851,
      "▁마음에": 1852,
      "▁연락이": 1853,
      "▁느낌": 1854,
      "▁축하": 1855,
      "▁갑": 1856,
      "▁개": 1857,
      "▁난": 1858,
      "▁와": 1859,
      "▁천": 1860,
      "는지": 1861,
      "▁같은": 1862,
      "▁말을": 1863,
      "▁문제": 1864,
      "▁붙": 1865,
      "▁손": 1866,
      "기를": 1867,
      "나요.": 1868,
      "려보세요.": 1869,
      "어나": 1870,
      "으세요.": 1871,
      "▁힘내": 1872,
      "▁만났": 1873,
      "▁잊어": 1874,
      "▁찾아보세요.": 1875,
      "▁스트레스": 1876,
      "▁봐": 1877,
      "▁크": 1878,
      "군요.": 1879,
      "리가": 1880,
      "리세요.": 1881,
      "스럽": 1882,
      "을까": 1883,
      "▁그렇": 1884,
      "▁가는": 1885,
      "▁사랑한": 1886,
      "▁중요한": 1887,
      "▁위로": 1888,
      "▁답답": 1889,
      "▁허": 1890,
      "감이": 1891,
      "볼까?": 1892,
      "야?": 1893,
      "▁말씀": 1894,
      "▁확인": 1895,
      "▁언젠": 1896,
      "▁어떨까요.": 1897,
      "▁목": 1898,
      "▁빠": 1899,
      "▁큰": 1900,
      "▁환": 1901,
      "애가": 1902,
      "이가": 1903,
      "▁그게": 1904,
      "▁어때": 1905,
      "▁싶다.": 1906,
      "▁기대": 1907,
      "▁바라요.": 1908,
      "▁결국": 1909,
      "▁괜찮아요.": 1910,
      "▁확실": 1911,
      "▁변화": 1912,
      "▁요즘": 1913,
      "▁처음": 1914,
      "▁갈": 1915,
      "▁넘": 1916,
      "▁태": 1917,
      "▁포": 1918,
      "는거": 1919,
      "지요.": 1920,
      "하네요.": 1921,
      "▁가보세요.": 1922,
      "▁때가": 1923,
      "▁집에": 1924,
      "▁물어보세요.": 1925,
      "▁관계": 1926,
      "▁헤어지고": 1927,
      "▁쉽지": 1928,
      "▁된": 1929,
      "▁뭔": 1930,
      "▁웃": 1931,
      "▁풀": 1932,
      "▁습관": 1933,
      "까.": 1934,
      "었어": 1935,
      "지고": 1936,
      "지막": 1937,
      "▁있죠.": 1938,
      "▁나쁜": 1939,
      "▁다음": 1940,
      "▁사랑을": 1941,
      "▁이별은": 1942,
      "▁우리": 1943,
      "▁아직도": 1944,
      "▁솔": 1945,
      "▁청": 1946,
      "▁흘": 1947,
      "것도": 1948,
      "으니까요.": 1949,
      "하다": 1950,
      "▁나가": 1951,
      "▁마지막": 1952,
      "▁가슴": 1953,
      "▁싶은데": 1954,
      "▁말아요.": 1955,
      "이라도": 1956,
      "▁추억": 1957,
      "▁세상": 1958,
      "▁대화를": 1959,
      "▁충분히": 1960,
      "▁울": 1961,
      "▁절": 1962,
      "▁친": 1963,
      "만에": 1964,
      "세요!": 1965,
      "졌어": 1966,
      "했나봐요.": 1967,
      "▁그리": 1968,
      "▁같아.": 1969,
      "▁오늘도": 1970,
      "▁재회": 1971,
      "▁의미": 1972,
      "▁짝녀가": 1973,
      "▁현실": 1974,
      "▁때문에": 1975,
      "▁도움이": 1976,
      "▁긴": 1977,
      "▁꼭": 1978,
      "▁식": 1979,
      "▁프": 1980,
      "동안": 1981,
      "볼까": 1982,
      "싶어": 1983,
      "▁거라": 1984,
      "▁나는": 1985,
      "▁다르": 1986,
      "▁마음의": 1987,
      "▁않은": 1988,
      "▁바람": 1989,
      "▁이별이": 1990,
      "▁연락을": 1991,
      "▁연락해보세요.": 1992,
      "▁부모": 1993,
      "▁당신의": 1994,
      "▁상대방": 1995,
      "▁딱": 1996,
      "▁밥": 1997,
      "▁티": 1998,
      "가요.": 1999
    },
    "merges": [
      [
        "▁",
        "["
      ],
      [
        "O",
        "S"
      ],
      [
        "▁[",
        "S"
      ],
      [
        "OS",
        "]"
      ],
      [
        "E",
        "P"
      ],
      [
        "E",
        "OS]"
      ],
      [
        "▁[",
        "EOS]"
      ],
      [
        "▁[S",
        "OS]"
      ],
      [
        "▁[S",
        "EP"
      ],
      [
        "▁[SEP",
        "]"
      ],
      [
        "요",
        "."
      ],
      [
        "세",
        "요."
      ],
      [
        "▁",
        "사"
      ],
      [
        "▁",
        "좋"
      ],
      [
        "▁",
        "있"
      ],
      [
        "▁",
        "이"
      ],
      [
        "▁",
        "거"
      ],
      [
        "하",
        "는"
      ],
      [
        "보",
        "세요."
      ],
      [
        "▁",
        "그"
      ],
      [
        "▁",
        "나"
      ],
      [
        "▁",
        "아"
      ],
      [
        "▁",
        "마"
      ],
      [
        "예",
        "요."
      ],
      [
        "▁사",
        "람"
      ],
      [
        "▁좋",
        "아"
      ],
      [
        "어",
        "요."
      ],
      [
        "▁",
        "같"
      ],
      [
        "▁",
        "다"
      ],
      [
        "▁거",
        "예요."
      ],
      [
        "▁",
        "생"
      ],
      [
        "▁",
        "하"
      ],
      [
        "▁",
        "어"
      ],
      [
        "▁",
        "가"
      ],
      [
        "▁",
        "안"
      ],
      [
        "▁",
        "해"
      ],
      [
        "▁사",
        "랑"
      ],
      [
        "▁",
        "수"
      ],
      [
        "네",
        "요."
      ],
      [
        "다",
        "."
      ],
      [
        "죠",
        "."
      ],
      [
        "▁",
        "연"
      ],
      [
        "▁",
        "없"
      ],
      [
        "▁생",
        "각"
      ],
      [
        "▁",
        "힘"
      ],
      [
        "친",
        "구"
      ],
      [
        "▁",
        "자"
      ],
      [
        "▁",
        "잘"
      ],
      [
        "▁",
        "싶"
      ],
      [
        "▁",
        "여"
      ],
      [
        "▁",
        "말"
      ],
      [
        "▁",
        "많"
      ],
      [
        "봐",
        "요."
      ],
      [
        "▁",
        "남"
      ],
      [
        "▁",
        "너"
      ],
      [
        "▁",
        "것"
      ],
      [
        "▁",
        "만"
      ],
      [
        "는",
        "데"
      ],
      [
        "▁마",
        "음"
      ],
      [
        "▁",
        "시"
      ],
      [
        "▁",
        "않"
      ],
      [
        "▁",
        "내"
      ],
      [
        "▁",
        "기"
      ],
      [
        "▁",
        "보"
      ],
      [
        "▁",
        "지"
      ],
      [
        "▁너",
        "무"
      ],
      [
        "▁좋아",
        "하는"
      ],
      [
        "니",
        "다."
      ],
      [
        "아",
        "요."
      ],
      [
        "까",
        "?"
      ],
      [
        "▁",
        "오"
      ],
      [
        "▁",
        "바"
      ],
      [
        "▁",
        "더"
      ],
      [
        "해",
        "보세요."
      ],
      [
        "▁이",
        "별"
      ],
      [
        "▁",
        "정"
      ],
      [
        "▁",
        "헤"
      ],
      [
        "▁연",
        "락"
      ],
      [
        "하",
        "고"
      ],
      [
        "▁",
        "일"
      ],
      [
        "▁헤",
        "어"
      ],
      [
        "▁",
        "짝"
      ],
      [
        "▁",
        "고"
      ],
      [
        "▁여",
        "자"
      ],
      [
        "으",
        "면"
      ],
      [
        "▁있",
        "을"
      ],
      [
        "▁남",
        "자"
      ],
      [
        "▁",
        "되"
      ],
      [
        "▁",
        "썸"
      ],
      [
        "▁",
        "알"
      ],
      [
        "▁힘",
        "들"
      ],
      [
        "▁",
        "모"
      ],
      [
        "▁많",
        "이"
      ],
      [
        "나",
        "봐요."
      ],
      [
        "▁좋",
        "은"
      ],
      [
        "▁",
        "한"
      ],
      [
        "하",
        "지"
      ],
      [
        "▁",
        "상"
      ],
      [
        "▁시",
        "간"
      ],
      [
        "▁",
        "게"
      ],
      [
        "▁",
        "무"
      ],
      [
        "으",
        "로"
      ],
      [
        "▁사람",
        "이"
      ],
      [
        "에",
        "요."
      ],
      [
        "▁",
        "때"
      ],
      [
        "▁",
        "저"
      ],
      [
        "▁",
        "친구"
      ],
      [
        "▁",
        "건"
      ],
      [
        "한",
        "테"
      ],
      [
        "에",
        "서"
      ],
      [
        "▁",
        "결"
      ],
      [
        "▁",
        "못"
      ],
      [
        "▁",
        "좀"
      ],
      [
        "▁",
        "주"
      ],
      [
        "▁",
        "전"
      ],
      [
        "▁",
        "먹"
      ],
      [
        "▁싶",
        "어"
      ],
      [
        "▁",
        "중"
      ],
      [
        "겠",
        "어요."
      ],
      [
        "▁같",
        "아요."
      ],
      [
        "▁",
        "부"
      ],
      [
        "▁",
        "인"
      ],
      [
        "▁",
        "조"
      ],
      [
        "해",
        "요."
      ],
      [
        "▁",
        "받"
      ],
      [
        "▁있",
        "어요."
      ],
      [
        "▁",
        "대"
      ],
      [
        "하",
        "면"
      ],
      [
        "▁",
        "당"
      ],
      [
        "▁",
        "선"
      ],
      [
        "▁같",
        "아"
      ],
      [
        "▁오",
        "늘"
      ],
      [
        "▁",
        "뭐"
      ],
      [
        "▁",
        "살"
      ],
      [
        "▁",
        "후"
      ],
      [
        "▁",
        "할"
      ],
      [
        "▁",
        "될"
      ],
      [
        "▁이",
        "제"
      ],
      [
        "▁",
        "제"
      ],
      [
        "어",
        "."
      ],
      [
        "▁",
        "괜"
      ],
      [
        "하",
        "세요."
      ],
      [
        "▁만",
        "나"
      ],
      [
        "하",
        "게"
      ],
      [
        "▁",
        "걸"
      ],
      [
        "이",
        "에요."
      ],
      [
        "겠",
        "네요."
      ],
      [
        "주",
        "세요."
      ],
      [
        "▁",
        "미"
      ],
      [
        "▁자",
        "신"
      ],
      [
        "▁괜",
        "찮"
      ],
      [
        "▁",
        "진"
      ],
      [
        "▁좋",
        "을"
      ],
      [
        "▁",
        "들"
      ],
      [
        "까",
        "요."
      ],
      [
        "에",
        "게"
      ],
      [
        "▁",
        "끝"
      ],
      [
        "▁",
        "드"
      ],
      [
        "▁아",
        "니"
      ],
      [
        "겠",
        "지"
      ],
      [
        "▁",
        "소"
      ],
      [
        "라",
        "고"
      ],
      [
        "▁",
        "감"
      ],
      [
        "▁마",
        "세요."
      ],
      [
        "▁",
        "잊"
      ],
      [
        "▁",
        "필"
      ],
      [
        "는",
        "게"
      ],
      [
        "▁",
        "비"
      ],
      [
        "▁연",
        "애"
      ],
      [
        "▁내",
        "가"
      ],
      [
        "▁",
        "하는"
      ],
      [
        "▁마음",
        "이"
      ],
      [
        "▁여자",
        "친구"
      ],
      [
        "▁있",
        "는"
      ],
      [
        "▁모",
        "르"
      ],
      [
        "▁필",
        "요"
      ],
      [
        "▁",
        "스"
      ],
      [
        "▁",
        "왜"
      ],
      [
        "다",
        "면"
      ],
      [
        "▁다",
        "른"
      ],
      [
        "▁해",
        "보세요."
      ],
      [
        "▁",
        "집"
      ],
      [
        "다",
        "고"
      ],
      [
        "▁",
        "공"
      ],
      [
        "▁",
        "혼"
      ],
      [
        "▁",
        "타"
      ],
      [
        "▁어",
        "떻"
      ],
      [
        "▁짝",
        "남"
      ],
      [
        "가",
        "봐요."
      ],
      [
        "▁시간",
        "이"
      ],
      [
        "게",
        "요."
      ],
      [
        "▁",
        "물"
      ],
      [
        "▁",
        "예"
      ],
      [
        "니",
        "다"
      ],
      [
        "▁헤어",
        "진"
      ],
      [
        "▁어떻",
        "게"
      ],
      [
        "▁",
        "도"
      ],
      [
        "▁",
        "차"
      ],
      [
        "▁남자",
        "친구"
      ],
      [
        "▁",
        "돼"
      ],
      [
        "▁",
        "행"
      ],
      [
        "▁당",
        "신"
      ],
      [
        "▁",
        "맞"
      ],
      [
        "▁",
        "신"
      ],
      [
        "▁다",
        "시"
      ],
      [
        "▁",
        "날"
      ],
      [
        "▁",
        "서"
      ],
      [
        "▁",
        "방"
      ],
      [
        "▁",
        "관"
      ],
      [
        "해",
        "도"
      ],
      [
        "▁",
        "애"
      ],
      [
        "▁",
        "우"
      ],
      [
        "▁",
        "했"
      ],
      [
        "인",
        "데"
      ],
      [
        "네",
        "."
      ],
      [
        "요",
        "?"
      ],
      [
        "▁하",
        "고"
      ],
      [
        "▁",
        "노"
      ],
      [
        "들",
        "이"
      ],
      [
        "▁지",
        "금"
      ],
      [
        "▁정",
        "말"
      ],
      [
        "▁결",
        "혼"
      ],
      [
        "▁",
        "또"
      ],
      [
        "▁",
        "재"
      ],
      [
        "▁수",
        "도"
      ],
      [
        "▁",
        "잠"
      ],
      [
        "사",
        "랑"
      ],
      [
        "▁",
        "눈"
      ],
      [
        "▁혼",
        "자"
      ],
      [
        "▁",
        "계"
      ],
      [
        "▁",
        "참"
      ],
      [
        "▁",
        "싫"
      ],
      [
        "▁있",
        "어"
      ],
      [
        "▁정",
        "리"
      ],
      [
        "▁",
        "준"
      ],
      [
        "▁",
        "찾"
      ],
      [
        "▁없",
        "어"
      ],
      [
        "▁것",
        "도"
      ],
      [
        "▁고",
        "민"
      ],
      [
        "▁",
        "따"
      ],
      [
        "▁그",
        "런"
      ],
      [
        "▁",
        "새"
      ],
      [
        "▁기",
        "다"
      ],
      [
        "▁조",
        "금"
      ],
      [
        "어",
        "보세요."
      ],
      [
        "이",
        "네요."
      ],
      [
        "▁중",
        "요"
      ],
      [
        "▁",
        "놀"
      ],
      [
        "은",
        "데"
      ],
      [
        "▁행",
        "복"
      ],
      [
        "겠",
        "어"
      ],
      [
        "▁",
        "쉬"
      ],
      [
        "▁",
        "얼"
      ],
      [
        "▁",
        "위"
      ],
      [
        "▁",
        "확"
      ],
      [
        "렇",
        "게"
      ],
      [
        "▁",
        "달"
      ],
      [
        "▁",
        "언"
      ],
      [
        "▁",
        "의"
      ],
      [
        "▁같",
        "이"
      ],
      [
        "겠",
        "죠."
      ],
      [
        "▁아",
        "직"
      ],
      [
        "▁",
        "데"
      ],
      [
        "습",
        "니다."
      ],
      [
        "▁",
        "두"
      ],
      [
        "▁",
        "반"
      ],
      [
        "▁",
        "성"
      ],
      [
        "해",
        "야"
      ],
      [
        "지",
        "도"
      ],
      [
        "▁",
        "먼"
      ],
      [
        "지",
        "만"
      ],
      [
        "▁준",
        "비"
      ],
      [
        "▁",
        "편"
      ],
      [
        "이",
        "라"
      ],
      [
        "▁힘",
        "든"
      ],
      [
        "▁",
        "배"
      ],
      [
        "▁",
        "피"
      ],
      [
        "라",
        "요."
      ],
      [
        "▁아",
        "무"
      ],
      [
        "▁보",
        "고"
      ],
      [
        "▁짝",
        "사랑"
      ],
      [
        "거",
        "예요."
      ],
      [
        "▁자",
        "꾸"
      ],
      [
        "▁그",
        "럴"
      ],
      [
        "▁짝",
        "녀"
      ],
      [
        "▁선",
        "물"
      ],
      [
        "▁찾",
        "아"
      ],
      [
        "▁",
        "맛"
      ],
      [
        "▁",
        "추"
      ],
      [
        "요",
        "!"
      ],
      [
        "▁싶",
        "다"
      ],
      [
        "▁해",
        "야"
      ],
      [
        "▁후",
        "회"
      ],
      [
        "▁진",
        "짜"
      ],
      [
        "보",
        "다"
      ],
      [
        "▁",
        "변"
      ],
      [
        "▁",
        "술"
      ],
      [
        "▁",
        "카"
      ],
      [
        "니",
        "까요."
      ],
      [
        "▁없",
        "어요."
      ],
      [
        "▁먼",
        "저"
      ],
      [
        "▁",
        "꿈"
      ],
      [
        "▁",
        "느"
      ],
      [
        "▁",
        "동"
      ],
      [
        "▁없",
        "는"
      ],
      [
        "▁",
        "직"
      ],
      [
        "해",
        "서"
      ],
      [
        "▁헤어",
        "지"
      ],
      [
        "▁고",
        "백"
      ],
      [
        "▁제",
        "가"
      ],
      [
        "▁방",
        "법"
      ],
      [
        "봅",
        "니다."
      ],
      [
        "▁저",
        "도"
      ],
      [
        "▁헤어진",
        "지"
      ],
      [
        "▁돼",
        "요."
      ],
      [
        "▁",
        "몰"
      ],
      [
        "▁",
        "운"
      ],
      [
        "까",
        "지"
      ],
      [
        "이",
        "야"
      ],
      [
        "이",
        "죠."
      ],
      [
        "▁",
        "충"
      ],
      [
        "▁시",
        "작"
      ],
      [
        "▁바",
        "랄"
      ],
      [
        "▁",
        "누"
      ],
      [
        "▁",
        "불"
      ],
      [
        "▁",
        "올"
      ],
      [
        "▁",
        "적"
      ],
      [
        "▁사",
        "귀"
      ],
      [
        "▁",
        "화"
      ],
      [
        "▁서",
        "로"
      ],
      [
        "인",
        "가"
      ],
      [
        "▁감",
        "정"
      ],
      [
        "▁계",
        "속"
      ],
      [
        "▁일",
        "이"
      ],
      [
        "▁",
        "돌"
      ],
      [
        "▁",
        "심"
      ],
      [
        "면",
        "서"
      ],
      [
        "▁마음",
        "을"
      ],
      [
        "▁기",
        "분"
      ],
      [
        "▁바랄",
        "게요."
      ],
      [
        "▁",
        "돈"
      ],
      [
        "▁",
        "문"
      ],
      [
        "▁",
        "버"
      ],
      [
        "▁나",
        "를"
      ],
      [
        "▁",
        "귀"
      ],
      [
        "▁",
        "답"
      ],
      [
        "에",
        "는"
      ],
      [
        "해",
        "주세요."
      ],
      [
        "▁받",
        "아"
      ],
      [
        "▁여자친구",
        "가"
      ],
      [
        "▁",
        "1"
      ],
      [
        "대",
        "로"
      ],
      [
        "▁가",
        "능"
      ],
      [
        "▁먹",
        "고"
      ],
      [
        "▁공",
        "부"
      ],
      [
        "▁",
        "매"
      ],
      [
        "려",
        "고"
      ],
      [
        "야",
        "기"
      ],
      [
        "▁이",
        "야기"
      ],
      [
        "▁힘",
        "드"
      ],
      [
        "▁들",
        "어"
      ],
      [
        "보",
        "는"
      ],
      [
        "▁이",
        "상"
      ],
      [
        "▁아",
        "닌"
      ],
      [
        "▁하",
        "나"
      ],
      [
        "▁",
        "머"
      ],
      [
        "▁알",
        "아"
      ],
      [
        "▁",
        "실"
      ],
      [
        "기",
        "가"
      ],
      [
        "야",
        "지"
      ],
      [
        "▁그",
        "녀"
      ],
      [
        "▁만",
        "들"
      ],
      [
        "▁",
        "속"
      ],
      [
        "▁",
        "떨"
      ],
      [
        "▁",
        "줄"
      ],
      [
        "해",
        "?"
      ],
      [
        "▁하",
        "지"
      ],
      [
        "▁하",
        "세요."
      ],
      [
        "▁",
        "회"
      ],
      [
        "이",
        "었"
      ],
      [
        "지",
        "는"
      ],
      [
        "▁",
        "걱"
      ],
      [
        "▁",
        "믿"
      ],
      [
        "다",
        "는"
      ],
      [
        "▁좋아",
        "요."
      ],
      [
        "▁걱",
        "정"
      ],
      [
        "▁",
        "간"
      ],
      [
        "▁",
        "떠"
      ],
      [
        "▁",
        "왔"
      ],
      [
        "▁",
        "보세요."
      ],
      [
        "이",
        "트"
      ],
      [
        "▁많",
        "은"
      ],
      [
        "▁않",
        "아요."
      ],
      [
        "▁신",
        "경"
      ],
      [
        "▁",
        "세"
      ],
      [
        "▁",
        "취"
      ],
      [
        "랍",
        "니다."
      ],
      [
        "▁사랑",
        "하는"
      ],
      [
        "▁남자친구",
        "가"
      ],
      [
        "리",
        "는"
      ],
      [
        "▁",
        "쓰"
      ],
      [
        "했",
        "어"
      ],
      [
        "▁기",
        "억"
      ],
      [
        "▁",
        "입"
      ],
      [
        "▁",
        "표"
      ],
      [
        "▁",
        "함"
      ],
      [
        "▁",
        "현"
      ],
      [
        "습",
        "니다"
      ],
      [
        "▁생각",
        "해요."
      ],
      [
        "▁상",
        "처"
      ],
      [
        "▁",
        "분"
      ],
      [
        "하",
        "기"
      ],
      [
        "▁그",
        "래"
      ],
      [
        "▁",
        "곳"
      ],
      [
        "▁",
        "뭘"
      ],
      [
        "▁",
        "학"
      ],
      [
        "▁하",
        "루"
      ],
      [
        "▁어",
        "떤"
      ],
      [
        "▁않",
        "을"
      ],
      [
        "▁싫",
        "어"
      ],
      [
        "▁",
        "맘"
      ],
      [
        "니",
        "까"
      ],
      [
        "합",
        "니다."
      ],
      [
        "▁바",
        "랍니다."
      ],
      [
        "자",
        "고"
      ],
      [
        "▁",
        "축"
      ],
      [
        "▁",
        "2"
      ],
      [
        "▁",
        "놓"
      ],
      [
        "▁",
        "장"
      ],
      [
        "로",
        "운"
      ],
      [
        "하는",
        "게"
      ],
      [
        "▁사랑",
        "이"
      ],
      [
        "▁상",
        "대"
      ],
      [
        "▁관",
        "심"
      ],
      [
        "▁맛",
        "있"
      ],
      [
        "▁",
        "영"
      ],
      [
        "▁",
        "원"
      ],
      [
        "스",
        "러"
      ],
      [
        "이",
        "랑"
      ],
      [
        "▁있",
        "으면"
      ],
      [
        "▁나",
        "만"
      ],
      [
        "▁",
        "점"
      ],
      [
        "▁",
        "커"
      ],
      [
        "인",
        "지"
      ],
      [
        "할",
        "까"
      ],
      [
        "▁좋",
        "죠."
      ],
      [
        "▁해",
        "요."
      ],
      [
        "▁무",
        "슨"
      ],
      [
        "▁",
        "약"
      ],
      [
        "다",
        "가"
      ],
      [
        "부",
        "터"
      ],
      [
        "할",
        "까?"
      ],
      [
        "▁있",
        "었"
      ],
      [
        "▁사람",
        "은"
      ],
      [
        "▁어",
        "떨"
      ],
      [
        "▁여",
        "행"
      ],
      [
        "▁말",
        "해보세요."
      ],
      [
        "▁",
        "과"
      ],
      [
        "▁",
        "앞"
      ],
      [
        "적",
        "인"
      ],
      [
        "▁이",
        "유"
      ],
      [
        "▁대",
        "화"
      ],
      [
        "▁드",
        "세요."
      ],
      [
        "▁물",
        "어"
      ],
      [
        "▁언",
        "제"
      ],
      [
        "▁충",
        "분"
      ],
      [
        "▁머",
        "리"
      ],
      [
        "▁",
        "궁"
      ],
      [
        "▁",
        "싸"
      ],
      [
        "▁",
        "엄"
      ],
      [
        "텐",
        "데"
      ],
      [
        "▁좋",
        "겠"
      ],
      [
        "▁이",
        "렇게"
      ],
      [
        "▁결",
        "정"
      ],
      [
        "▁함",
        "께"
      ],
      [
        "▁",
        "쉽"
      ],
      [
        "▁",
        "슬"
      ],
      [
        "▁",
        "외"
      ],
      [
        "▁",
        "용"
      ],
      [
        "▁좋",
        "겠어요."
      ],
      [
        "▁안",
        "돼"
      ],
      [
        "▁자신",
        "을"
      ],
      [
        "▁데",
        "이트"
      ],
      [
        "▁카",
        "톡"
      ],
      [
        "가",
        "는"
      ],
      [
        "▁많",
        "아"
      ],
      [
        "▁힘들",
        "어"
      ],
      [
        "▁친구",
        "가"
      ],
      [
        "▁선",
        "택"
      ],
      [
        "▁표",
        "현"
      ],
      [
        "▁궁",
        "금"
      ],
      [
        "▁",
        "됐"
      ],
      [
        "▁",
        "설"
      ],
      [
        "기",
        "도"
      ],
      [
        "나",
        "?"
      ],
      [
        "▁있",
        "는데"
      ],
      [
        "▁그",
        "냥"
      ],
      [
        "▁안",
        "되"
      ],
      [
        "▁해",
        "도"
      ],
      [
        "▁여",
        "친"
      ],
      [
        "▁헤어",
        "졌"
      ],
      [
        "라",
        "도"
      ],
      [
        "입",
        "니다."
      ],
      [
        "지",
        "?"
      ],
      [
        "하",
        "죠."
      ],
      [
        "▁생각",
        "해보세요."
      ],
      [
        "▁않",
        "는"
      ],
      [
        "▁미",
        "련"
      ],
      [
        "▁",
        "3"
      ],
      [
        "▁",
        "길"
      ],
      [
        "▁",
        "발"
      ],
      [
        "▁",
        "별"
      ],
      [
        "▁",
        "요"
      ],
      [
        "▁",
        "잡"
      ],
      [
        "▁",
        "챙"
      ],
      [
        "▁",
        "최"
      ],
      [
        "처",
        "럼"
      ],
      [
        "▁오",
        "래"
      ],
      [
        "▁몰",
        "라요."
      ],
      [
        "▁",
        "단"
      ],
      [
        "▁",
        "듯"
      ],
      [
        "▁",
        "치"
      ],
      [
        "▁",
        "호"
      ],
      [
        "해",
        "."
      ],
      [
        "▁생",
        "겼"
      ],
      [
        "▁내",
        "일"
      ],
      [
        "▁한",
        "달"
      ],
      [
        "▁부",
        "담"
      ],
      [
        "▁될",
        "까?"
      ],
      [
        "겠지",
        "만"
      ],
      [
        "▁새",
        "로운"
      ],
      [
        "▁",
        "순"
      ],
      [
        "▁말",
        "고"
      ],
      [
        "▁타",
        "는"
      ],
      [
        "▁노",
        "력"
      ],
      [
        "어",
        "도"
      ],
      [
        "해",
        "주"
      ],
      [
        "▁이",
        "해"
      ],
      [
        "▁아",
        "프"
      ],
      [
        "▁가",
        "고"
      ],
      [
        "▁운",
        "동"
      ],
      [
        "▁돌",
        "아"
      ],
      [
        "▁",
        "질"
      ],
      [
        "▁",
        "휴"
      ],
      [
        "리",
        "고"
      ],
      [
        "트",
        "레"
      ],
      [
        "▁사람",
        "을"
      ],
      [
        "▁다",
        "가"
      ],
      [
        "▁직",
        "접"
      ],
      [
        "▁",
        "열"
      ],
      [
        "개",
        "월"
      ],
      [
        "▁어",
        "떡"
      ],
      [
        "▁사랑",
        "은"
      ],
      [
        "▁않",
        "았"
      ],
      [
        "▁보",
        "내"
      ],
      [
        "▁괜찮",
        "아"
      ],
      [
        "▁아니",
        "에요."
      ],
      [
        "▁스",
        "트레"
      ],
      [
        "▁따",
        "라"
      ],
      [
        "▁",
        "경"
      ],
      [
        "▁",
        "볼"
      ],
      [
        "▁",
        "즐"
      ],
      [
        "▁",
        "항"
      ],
      [
        "▁그",
        "만"
      ],
      [
        "▁나",
        "한테"
      ],
      [
        "▁하",
        "면"
      ],
      [
        "▁어",
        "디"
      ],
      [
        "▁이별",
        "을"
      ],
      [
        "▁회",
        "사"
      ],
      [
        "▁항",
        "상"
      ],
      [
        "▁",
        "구"
      ],
      [
        "▁",
        "늦"
      ],
      [
        "▁",
        "벌"
      ],
      [
        "▁",
        "복"
      ],
      [
        "▁",
        "죽"
      ],
      [
        "거",
        "나"
      ],
      [
        "까",
        "요?"
      ],
      [
        "▁생각",
        "나"
      ],
      [
        "▁잘",
        "못"
      ],
      [
        "▁만",
        "큼"
      ],
      [
        "▁않",
        "아"
      ],
      [
        "▁썸",
        "남"
      ],
      [
        "▁인",
        "연"
      ],
      [
        "▁",
        "번"
      ],
      [
        "▁",
        "첫"
      ],
      [
        "나",
        "봐"
      ],
      [
        "했",
        "던"
      ],
      [
        "▁이",
        "젠"
      ],
      [
        "▁같",
        "은데"
      ],
      [
        "▁때",
        "문"
      ],
      [
        "▁조",
        "심"
      ],
      [
        "▁재",
        "미"
      ],
      [
        "▁힘드",
        "네"
      ],
      [
        "▁",
        "깨"
      ],
      [
        "▁",
        "막"
      ],
      [
        "▁",
        "몸"
      ],
      [
        "나",
        "봅니다."
      ],
      [
        "▁그",
        "러"
      ],
      [
        "▁저",
        "는"
      ],
      [
        "▁달",
        "라"
      ],
      [
        "▁",
        "멋"
      ],
      [
        "거",
        "라"
      ],
      [
        "을",
        "까?"
      ],
      [
        "해",
        "지"
      ],
      [
        "▁생각",
        "을"
      ],
      [
        "▁싶",
        "은"
      ],
      [
        "▁남",
        "친"
      ],
      [
        "▁상",
        "황"
      ],
      [
        "▁소",
        "개"
      ],
      [
        "▁누",
        "구"
      ],
      [
        "▁신경",
        "쓰"
      ],
      [
        "▁",
        "처"
      ],
      [
        "이",
        "나"
      ],
      [
        "적",
        "으로"
      ],
      [
        "하",
        "네"
      ],
      [
        "▁좋",
        "겠네요."
      ],
      [
        "하는",
        "데"
      ],
      [
        "▁아",
        "파"
      ],
      [
        "▁어",
        "려"
      ],
      [
        "▁지",
        "나"
      ],
      [
        "▁챙",
        "겨"
      ],
      [
        "▁",
        "완"
      ],
      [
        "▁",
        "유"
      ],
      [
        "했",
        "는데"
      ],
      [
        "▁생각",
        "이"
      ],
      [
        "▁만",
        "날"
      ],
      [
        "▁있을",
        "까?"
      ],
      [
        "▁주",
        "세요."
      ],
      [
        "▁전",
        "화"
      ],
      [
        "▁인",
        "생"
      ],
      [
        "겠지",
        "?"
      ],
      [
        "▁짝남",
        "이"
      ],
      [
        "▁도",
        "움"
      ],
      [
        "▁노",
        "래"
      ],
      [
        "▁",
        "덜"
      ],
      [
        "보",
        "고"
      ],
      [
        "습",
        "관"
      ],
      [
        "았",
        "는데"
      ],
      [
        "인",
        "가봐요."
      ],
      [
        "▁그",
        "렇게"
      ],
      [
        "▁마음",
        "에"
      ],
      [
        "▁연락",
        "이"
      ],
      [
        "▁느",
        "낌"
      ],
      [
        "▁축",
        "하"
      ],
      [
        "▁",
        "갑"
      ],
      [
        "▁",
        "개"
      ],
      [
        "▁",
        "난"
      ],
      [
        "▁",
        "와"
      ],
      [
        "▁",
        "천"
      ],
      [
        "는",
        "지"
      ],
      [
        "▁같",
        "은"
      ],
      [
        "▁말",
        "을"
      ],
      [
        "▁문",
        "제"
      ],
      [
        "▁",
        "붙"
      ],
      [
        "▁",
        "손"
      ],
      [
        "기",
        "를"
      ],
      [
        "나",
        "요."
      ],
      [
        "려",
        "보세요."
      ],
      [
        "어",
        "나"
      ],
      [
        "으",
        "세요."
      ],
      [
        "▁힘",
        "내"
      ],
      [
        "▁만",
        "났"
      ],
      [
        "▁잊",
        "어"
      ],
      [
        "▁찾아",
        "보세요."
      ],
      [
        "▁스트레",
        "스"
      ],
      [
        "▁",
        "봐"
      ],
      [
        "▁",
        "크"
      ],
      [
        "군",
        "요."
      ],
      [
        "리",
        "가"
      ],
      [
        "리",
        "세요."
      ],
      [
        "스",
        "럽"
      ],
      [
        "을",
        "까"
      ],
      [
        "▁그",
        "렇"
      ],
      [
        "▁가",
        "는"
      ],
      [
        "▁사랑",
        "한"
      ],
      [
        "▁중요",
        "한"
      ],
      [
        "▁위",
        "로"
      ],
      [
        "▁답",
        "답"
      ],
      [
        "▁",
        "허"
      ],
      [
        "감",
        "이"
      ],
      [
        "볼",
        "까?"
      ],
      [
        "야",
        "?"
      ],
      [
        "▁말",
        "씀"
      ],
      [
        "▁확",
        "인"
      ],
      [
        "▁언",
        "젠"
      ],
      [
        "▁어떨",
        "까요."
      ],
      [
        "▁",
        "목"
      ],
      [
        "▁",
        "빠"
      ],
      [
        "▁",
        "큰"
      ],
      [
        "▁",
        "환"
      ],
      [
        "애",
        "가"
      ],
      [
        "이",
        "가"
      ],
      [
        "▁그",
        "게"
      ],
      [
        "▁어",
        "때"
      ],
      [
        "▁싶",
        "다."
      ],
      [
        "▁기",
        "대"
      ],
      [
        "▁바",
        "라요."
      ],
      [
        "▁결",
        "국"
      ],
      [
        "▁괜찮",
        "아요."
      ],
      [
        "▁확",
        "실"
      ],
      [
        "▁변",
        "화"
      ],
      [
        "▁요",
        "즘"
      ],
      [
        "▁처",
        "음"
      ],
      [
        "▁",
        "갈"
      ],
      [
        "▁",
        "넘"
      ],
      [
        "▁",
        "태"
      ],
      [
        "▁",
        "포"
      ],
      [
        "는",
        "거"
      ],
      [
        "지",
        "요."
      ],
      [
        "하",
        "네요."
      ],
      [
        "▁가",
        "보세요."
      ],
      [
        "▁때",
        "가"
      ],
      [
        "▁집",
        "에"
      ],
      [
        "▁물",
        "어보세요."
      ],
      [
        "▁관",
        "계"
      ],
      [
        "▁헤어지",
        "고"
      ],
      [
        "▁쉽",
        "지"
      ],
      [
        "▁",
        "된"
      ],
      [
        "▁",
        "뭔"
      ],
      [
        "▁",
        "웃"
      ],
      [
        "▁",
        "풀"
      ],
      [
        "▁",
        "습관"
      ],
      [
        "까",
        "."
      ],
      [
        "었",
        "어"
      ],
      [
        "지",
        "고"
      ],
      [
        "지",
        "막"
      ],
      [
        "▁있",
        "죠."
      ],
      [
        "▁나",
        "쁜"
      ],
      [
        "▁다",
        "음"
      ],
      [
        "▁사랑",
        "을"
      ],
      [
        "▁이별",
        "은"
      ],
      [
        "▁우",
        "리"
      ],
      [
        "▁아직",
        "도"
      ],
      [
        "▁",
        "솔"
      ],
      [
        "▁",
        "청"
      ],
      [
        "▁",
        "흘"
      ],
      [
        "것",
        "도"
      ],
      [
        "으",
        "니까요."
      ],
      [
        "하",
        "다"
      ],
      [
        "▁나",
        "가"
      ],
      [
        "▁마",
        "지막"
      ],
      [
        "▁가",
        "슴"
      ],
      [
        "▁싶",
        "은데"
      ],
      [
        "▁말",
        "아요."
      ],
      [
        "이라",
        "도"
      ],
      [
        "▁추",
        "억"
      ],
      [
        "▁세",
        "상"
      ],
      [
        "▁대화",
        "를"
      ],
      [
        "▁충분",
        "히"
      ],
      [
        "▁",
        "울"
      ],
      [
        "▁",
        "절"
      ],
      [
        "▁",
        "친"
      ],
      [
        "만",
        "에"
      ],
      [
        "세",
        "요!"
      ],
      [
        "졌",
        "어"
      ],
      [
        "했",
        "나봐요."
      ],
      [
        "▁그",
        "리"
      ],
      [
        "▁같아",
        "."
      ],
      [
        "▁오늘",
        "도"
      ],
      [
        "▁재",
        "회"
      ],
      [
        "▁의",
        "미"
      ],
      [
        "▁짝녀",
        "가"
      ],
      [
        "▁현",
        "실"
      ],
      [
        "▁때문",
        "에"
      ],
      [
        "▁도움",
        "이"
      ],
      [
        "▁",
        "긴"
      ],
      [
        "▁",
        "꼭"
      ],
      [
        "▁",
        "식"
      ],
      [
        "▁",
        "프"
      ],
      [
        "동",
        "안"
      ],
      [
        "볼",
        "까"
      ],
      [
        "싶",
        "어"
      ],
      [
        "▁거",
        "라"
      ],
      [
        "▁나",
        "는"
      ],
      [
        "▁다",
        "르"
      ],
      [
        "▁마음",
        "의"
      ],
      [
        "▁않",
        "은"
      ],
      [
        "▁바",
        "람"
      ],
      [
        "▁이별",
        "이"
      ],
      [
        "▁연락",
        "을"
      ],
      [
        "▁연락",
        "해보세요."
      ],
      [
        "▁부",
        "모"
      ],
      [
        "▁당신",
        "의"
      ],
      [
        "▁상대",
        "방"
      ],
      [
        "▁",
        "딱"
      ],
      [
        "▁",
        "밥"
      ],
      [
        "▁",
        "티"
      ],
      [
        "가",
        "요."
      ]
    ]
  }
}