[PAD]
[UNK]
[CLS]
[SEP]
[MASK]
!
"
%
&
'
(
)
+
,
-
.
/
0
1
2
3
4
5
6
7
8
9
:
;
<
=
>
?
A
B
C
D
E
F
G
H
I
J
K
L
M
N
O
P
Q
R
S
T
U
V
W
X
Y
Z
[
]
_
a
b
c
d
e
f
g
h
i
j
k
l
m
n
o
p
q
r
s
t
u
v
w
x
y
z
|
~
·
é
–
‘
’
“
”
∼
〈
〉
《
》
「
」
『
』
・
一
三
上
中
事
人
使
元
光
公
南
原
君
國
地
城
大
天
太
子
學
安
宗
寺
山
川
州
平
府
德
成
文
明
書
會
李
東
校
正
氏
法
海
王
石
義
西
軍
道
郡
金
長
院
陽
高
가
각
간
갈
감
갑
값
갔
강
갖
같
개
객
거
건
걸
검
것
게
겐
겠
겨
격
겪
견
결
겸
겼
경
계
고
곡
곤
곧
골
곱
곳
공
과
곽
관
괄
광
괴
교
구
국
군
굴
궁
권
궤
귀
규
균
그
극
근
글
금
급
기
긴
길
김
깊
까
깔
깨
꺼
께
꼬
꼭
꼽
꽃
꾸
꿈
뀌
끄
끊
끌
끝
끼
나
낙
난
날
남
납
났
낭
낮
낳
내
낸
낼
냈
냉
냐
냥
너
널
넓
넘
넣
네
넬
넷
녀
년
념
녕
노
녹
논
놀
농
높
놓
뇌
누
눈
뉘
뉴
늄
느
는
늘
능
늦
늬
니
닉
닌
닐
님
닛
닝
다
닥
단
닫
달
담
답
당
대
댄
더
덕
던
덜
덤
덩
덮
데
덴
델
도
독
돈
돌
동
돼
됐
되
된
될
됨
두
둑
둔
둘
둥
뒤
뒷
듀
드
득
든
듣
들
듬
듯
등
디
딘
딩
따
딸
땅
때
떠
떤
떨
떻
또
뛰
뜨
뜻
띠
라
락
란
랄
람
랍
랐
랑
래
랙
랜
램
랫
랭
략
량
러
럭
런
럴
럼
럽
렀
렇
레
렉
렌
렐
려
력
련
렬
렴
렵
렸
령
례
로
록
론
롤
롬
롭
롯
롱
뢰
료
룡
루
룩
룬
룹
뤄
뤼
류
륙
륜
률
륨
르
른
를
름
릉
리
릭
린
릴
림
립
릿
링
마
막
만
많
말
맛
망
맞
맡
매
맥
맨
맹
맺
머
먹
먼
멀
메
멕
멘
멜
멤
며
면
멸
명
몇
모
목
몬
몰
몸
못
몽
묘
무
묵
문
묻
물
뮤
므
미
믹
민
믿
밀
밍
및
밑
바
박
밖
반
받
발
밝
밤
밥
방
배
백
밴
뱀
뱅
버
번
벌
범
법
벗
베
벡
벤
벨
벼
벽
변
별
병
보
복
본
볼
봄
봉
부
북
분
불
붉
붕
붙
뷔
뷰
브
븐
블
비
빅
빈
빌
빙
빛
빠
빨
빼
뼈
뽑
뿌
뿐
사
삭
산
살
삶
삼
상
새
색
샌
샘
생
샤
서
석
선
설
섬
섭
섯
섰
성
세
센
셀
셈
셋
셔
션
셜
셰
소
속
손
솔
송
쇄
쇠
쇼
수
숙
순
술
숨
숫
숭
숲
쉬
쉽
슈
스
슨
슬
슴
습
슷
승
시
식
신
실
심
십
싱
싶
싸
쌍
쌓
써
썼
쓰
쓴
쓸
씨
씩
씬
아
악
안
앉
않
알
암
압
앗
았
앙
앞
애
액
앤
앨
앵
야
약
얀
양
어
억
언
얻
얼
엄
업
없
엇
었
에
엑
엔
엘
엠
여
역
연
열
염
엽
였
영
옆
예
옌
옛
오
옥
온
올
옮
옷
옹
와
완
왔
왕
왜
외
왼
요
욕
용
우
욱
운
울
움
웃
웅
워
원
월
웠
웨
웰
웹
위
윈
윌
유
육
윤
율
융
으
은
을
음
읍
응
의
이
익
인
일
읽
잃
임
입
잇
있
잉
잎
자
작
잔
잘
잠
잡
장
재
잭
쟁
저
적
전
절
젊
점
접
정
제
젝
젠
젤
져
졌
조
족
존
졸
좀
종
좋
좌
죄
주
죽
준
줄
중
쥐
즈
즉
즌
즐
즘
증
지
직
진
질
짐
집
짓
징
짜
짝
짧
째
쪽
쫓
찌
찍
차
착
찬
찰
참
창
찾
채
책
챔
처
척
천
철
첨
첩
첫
청
체
첼
쳐
쳤
초
촉
촌
총
촬
최
추
축
춘
출
춤
충
취
츠
측
층
치
칙
친
칠
침
칭
카
칸
칼
캄
캐
캔
캘
캠
커
컨
컬
컴
컵
컷
케
켄
켈
켓
켜
켰
코
콘
콜
콤
콩
쾌
쿄
쿠
쿨
퀴
큐
크
큰
클
큼
키
킨
킬
킹
타
탁
탄
탈
탐
탑
탕
태
택
탱
터
턴
털
테
텍
텐
텔
템
토
톤
톨
톰
톱
통
퇴
투
튀
튜
트
특
튼
틀
티
틱
틴
틸
팀
팅
파
판
팔
팝
패
팩
팬
팽
퍼
페
펜
펠
편
펼
평
폐
포
폭
폰
폴
폼
표
푸
풀
품
풍
퓨
프
픈
플
피
픽
핀
필
핑
하
학
한
할
함
합
항
해
핵
했
행
향
허
헌
험
헝
헤
헨
헬
혀
혁
현
혈
혐
협
혔
형
혜
호
혹
혼
홀
홈
홍
화
확
환
활
황
회
획
횡
효
후
훈
훨
휘
휴
흐
흑
흔
흘
흡
흥
희
흰
히
힌
힐
힘
##씨
##에
##악
##대
##음
##감
##투
##복
##들
##은
##8
##4
##미
##터
##의
##드
##리
##아
##누
##스
##도
##트
##뒤
##노
##르
##후
##성
##이
##다
##일
##회
##a
##u
##r
##i
##t
##n
##s
##칭
##라
##테
##가
##동
##강
##지
##구
##유
##수
##를
##농
##낭
##중
##령
##0
##9
##키
##어
##듣
##기
##능
##력
##평
##클
##럽
##퍼
##홀
##서
##오
##경
##나
##백
##원
##상
##돈
##무
##마
##로
##선
##천
##는
##처
##캐
##피
##탈
##협
##코
##부
##연
##본
##과
##쉬
##타
##문
##측
##블
##록
##으
##랙
##인
##차
##게
##편
##계
##화
##쇄
##릴
##크
##루
##임
##와
##명
##암
##학
##교
##e
##c
##l
##g
##m
##장
##판
##매
##착
##었
##국
##방
##송
##시
##식
##고
##출
##소
##핵
##치
##정
##자
##환
##되
##만
##현
##열
##쿠
##배
##민
##증
##o
##월
##하
##웃
##사
##더
##추
##카
##질
##1
##년
##품
##값
##그
##5
##염
##색
##박
##물
##관
##짓
##야
##즈
##찬
##종
##권
##족
##토
##참
##h
##k
##법
##론
##신
##보
##v
##y
##역
##죄
##반
##논
##란
##한
##군
##앙
##작
##2
##쪽
##땅
##버
##글
##래
##했
##을
##해
##요
##갈
##네
##느
##류
##면
##허
##센
##말
##G
##총
##응
##표
##것
##쿄
##데
##츠
##흔
##련
##적
##런
##너
##청
##급
##료
##파
##티
##심
##릭
##황
##궁
##레
##산
##업
##위
##K
##용
##담
##주
##각
##우
##3
##모
##바
##척
##세
##였
##제
##프
##뮤
##직
##공
##D
##A
##V
##전
##번
##S
##E
##N
##셀
##결
##초
##롱
##승
##형
##랑
##까
##렴
##저
##며
##함
##비
##러
##당
##웅
##운
##굴
##채
##김
##생
##윤
##쥐
##안
##른
##호
##갑
##순
##양
##병
##6
##할
##큼
##d
##z
##탕
##망
##F
##두
##P
##조
##합
##니
##셜
##거
##봉
##실
##린
##름
##별
##육
##발
##춘
##근
##간
##있
##내
##왕
##통
##개
##술
##입
##재
##창
##밀
##옌
##체
##밖
##져
##갔
##7
##압
##될
##켜
##몽
##맨
##좌
##컨
##w
##둘
##패
##젝
##셰
##즘
##등
##브
##베
##속
##플
##잘
##j
##틱
##절
##목
##콜
##남
##온
##진
##려
##랄
##T
##금
##집
##널
##손
##균
##행
##여
##석
##익
##휘
##분
##델
##혁
##케
##팅
##b
##람
##때
##L
##O
##롤
##접
##항
##륨
##희
##켓
##쌓
##I
##펠
##습
##광
##범
##념
##불
##뉴
##f
##립
##혼
##단
##커
##링
##묘
##엽
##난
##완
##머
##됐
##냐
##변
##된
##량
##왔
##톨
##킨
##책
##M
##렸
##괄
##쓰
##포
##둑
##풀
##푸
##살
##징
##옹
##영
##효
##덕
##험
##∼
##던
##뿐
##폰
##엔
##달
##외
##쿨
##격
##즌
##펜
##짜
##않
##특
##축
##률
##락
##R
##닥
##걸
##룡
##C
##U
##션
##쾌
##뿌
##Z
##H
##슈
##건
##벽
##넣
##벤
##예
##틀
##북
##억
##므
##랜
##픽
##벌
##x
##컵
##림
##J
##존
##녀
##깔
##괴
##컬
##럼
##철
##륜
##헤
##골
##끄
##됨
##독
##팀
##히
##튼
##샤
##길
##볼
##삼
##울
##혹
##렬
##섯
##빌
##언
##릉
##워
##턴
##탐
##X
##Q
##Y
##슬
##p
##겠
##B
##섭
##씩
##충
##향
##견
##쳐
##규
##애
##극
##옥
##빈
##았
##낸
##돌
##든
##잠
##략
##슨
##침
##곡
##올
##점
##끼
##틴
##약
##넘
##닉
##닝
##핑
##찰
##엘
##설
##헌
##릿
##덴
##롬
##메
##액
##써
##필
##컴
##렌
##녹
##취
##콘
##읍
##놓
##몬
##렐
##붙
##줄
##넷
##뜨
##훈
##득
##뷔
##쇠
##겨
##윌
##혈
##랭
##몰
##븐
##냥
##친
##폭
##례
##율
##탄
##귀
##태
##준
##칙
##흥
##디
##층
##졌
##객
##촉
##획
##먼
##찌
##움
##맥
##페
##섬
##é
##칼
##딩
##흘
##엄
##융
##날
##룬
##둔
##헬
##셔
##웨
##킹
##및
##맹
##큐
##룹
##홍
##욕
##칠
##뢰
##숙
##뱀
##빠
##확
##W
##최
##님
##째
##떻
##잡
##쇼
##폐
##켰
##멸
##욱
##륙
##벨
##힌
##께
##쟁
##십
##흐
##팝
##냈
##킬
##털
##램
##딘
##퇴
##붕
##꼬
##짐
##젠
##촌
##풍
##톤
##뼈
##꽃
##활
##났
##밍
##혀
##검
##댄
##눈
##닌
##잔
##쳤
##택
##빨
##톱
##켈
##늬
##없
##앤
##늘
##둥
##텔
##알
##틸
##궤
##춤
##뤼
##혜
##뷰
##렉
##답
##탁
##놀
##렵
##얼
##받
##팔
##긴
##겐
##막
##곤
##같
##돼
##따
##먹
##졸
##새
##맛
##곽
##죽
##힘
##싸
##텍
##닛
##롭
##듬
##폴
##칸
##앉
##팬
##픈
##퀴
##듀
##캄
##믹
##싱
##듯
##녕
##넬
##즐
##엑
##못
##핀
##렀
##탑
##멀
##멤
##켄
##롯
##첩
##퓨
##웠
##템
##럭
##힐
##엇
##젤
##콩
##캠
##쉽
##윈
##얀
##뇌
##뱅
##튜
##q
##앗
##탱
##봄
##왜
##팩
##텐
##높
##웹
##납
##멘
##겸
##밴
##웰
##샘
##숲
##맞
##잇
##낙
##빙
##휴
##즉
##묵
##겼
##캔
##셋
##씬
##떨
##랍
##뜻
##셈
##혔
##숭
##빛
##헨
##띠
##쌍
##닐
##솔
##끝
##엠
##끌
##곧
##많
##깨
##찾
##늄
##앵
##첨
##밤
##잉
##쓸
##홈
##빼
##랫
##폼
##벡
##곳
##콤
##슷
##또
##삭
##앨
##꾸
##튀
##벗
##덤
##밥
##렇
##벼
##슴
##몸
##멜
##곱
##찍
##앞
##낮
##숨
##꿈
##헝
##쫓
##꼭
##잎
##덜
##뛰
##꺼
##흑
##샌
##챔
##첼
##멕
##혐
##빅
##룩
##횡
##팽
##큰
##잭
##몇
##옷
##갖
##붉
##촬
##컷
##흡
##톰
##낼
##떠
##딸
##깊
##닫
##덮
##떤
##럴
##옛
##흰
##덩
##냉
##캘
##맺
##짝
##뤄
##숫
##좀
##꼽
##뉘
##랐
##밑
##좋
##썼
##낳
##싶
##뀌
##넓
##읽
##짧
##쓴
##뽑
##잃
##묻
##섰
##옆
##맡
##뒷
##왼
##첫
##옮
##믿
##얻
##밝
##삶
##늦
##젊
##겪
##훨
##끊
##펼
##으로
##에서
##이다
19
##었다
20
있다
##하였
##했다
##하는
##하고
##하였다
##하여
##으며
201
##한다
##에는
##되었다
200
있는
대한
##부터
##0년
##지만
##까지
10
##에게
##적인
##적으로
##국의
##학교
##되어
##8년
##면서
사용
##들이
##or
##5년
##9년
이후
18
##6년
일본
##들은
##7년
##4년
##하기
199
한다
##2년
##에서는
##하게
##1년
##3년
##er
12
다음
##았다
##였다
##으나
##이라
그는
대한민
되었다
##la
##리아
##00
11
##되었
##는데
다른
지역
그리
##스트
같은
##된다
##on
위해
198
미국
##주의
##이며
때문
프로
##들의
시작
##기도
그러
##들을
따라
또한
사람
##in
##하며
함께
현재
경우
##an
15
위치
자신
##시아
이름
한국
16
##이나
영화
선수
당시
##하지
그의
##라는
##mu
for
197
##하다
기록
세계
하나
사이
가장
##기에
조선
그러나
또는
때문에
##mula
##기를
17
##레이
##에도
formula
##되는
##en
것을
했다
국가
있으며
##스의
에서
##ar
것으로
된다
있었다
의해
것이
196
##라고
그리고
##리는
##지는
프랑
##일에
통해
활동
##졌다
##등학교
14
많은
것이다
##리를
대한민국
들어
194
##되고
서울
하는
만들
##al
##ti
아니
경기
다음과
##하였고
##스는
다시
##하면서
13
12월
3월
##는다
##랜드
##es
포함
가지
4월
10월
대해
있었
##했고
여러
8월
7월
대한민국의
5월
##대로
195
##사를
독일
9월
6월
##이었다
1월
하였다
##로서
##상을
모두
사회
##개의
연구
##이는
도시
모든
11월
##장을
중국
제1
##위를
##보다
##이고
처음
알려
일부
##성을
##지를
시즌
등이
이루
##니아
아이
으로
##어진
등의
인구
제작
전쟁
대표
축구
##이라고
정부
##대의
이용
##he
감독
##ic
2월
##리에
##회의
##라이
정치
존재
##자가
위한
프랑스
##이었
구성
이상
있어
영국
라고
##도의
##부분
193
일반
##is
##력을
##도로
##거나
것은
중심
자신의
문제
같다
나타
리그
30
##나라
##시에
가능
작품
##이자
게임
개발
##기의
라는
이러
동안
이어
새로
이러한
이다
발견
하지만
기준
이는
국제
등을
주장
되어
방송
발표
위치한
##통령
##하면
지방
하고
##리스
##했으며
##0년대
##도록
192
제2
##위원
##다는
##at
##들과
##시키
의미
##로는
이를
##자의
대부분
##기는
##다고
사건
전투
##서는
25
문화
##군의
음악
공격
##리가
##기가
역사
번째
##le
##란드
##로부터
##it
##었고
##이라는
##되었고
##ou
대학
대회
대통령
2010년
##리카
영향
##km
##하였으며
##이트
##이스
##났다
##정을
최초
특히
##에서도
미국의
##세기
프로그
##명의
참여
##으로는
배우
우승
설립
##성이
이에
진행
결과
설치
##리그
##들에게
##인의
##자는
##el
##도를
191
##자를
관계
발생
21
##사가
관련
유럽
일어
그녀
러시아
올림
##스를
##리의
사망
##디오
발매
독립
##와의
이전
자유
다양
경제
시간
##대를
부분
생각
사실
##렸다
같이
##자로
교육
형태
##가지
주로
새로운
이것
##re
##므로
태어
이탈
##요한
##om
인해
수도
중앙
##스터
기술
소속
받아
##되었으며
지원
2008년
##ol
받았다
있고
##르는
올림픽
로마
##스가
##했던
22
##us
계속
##식을
##라마
출신
프로그램
##화국
고려
등장
2011년
23
24
지정
구조
상태
2007년
##번째
참가
##과의
매우
있던
##도는
결정
2009년
데뷔
운영
성공
선거
타이
아버
##학자
이탈리아
##다가
##이지
##사의
2012년
##리즈
##인이
##부의
##대학교
않았다
##프트
일본의
##이션
000
가지고
##르크
##전을
##드는
돌아
아들
##as
##비아
없다
2014년
##기로
190
기원
##명을
아니라
##하기도
##대에
##tion
##am
결국
차지
##ing
최고
행정
##장이
##해서
생산
운동
##도가
26
없는
한편
##으로서
조직
해당
##되지
##ch
아래
2013년
출연
라이
##처럼
전체
1일
28
않고
##남도
##운데
##우스
##il
##에서의
하여
##하자
여성
앨범
2006년
27
계획
##et
이유
##권을
음반
##사는
내용
많이
##FA
가리
##간의
##명이
##부에
스타
2015년
국민
유명
방법
##화를
따르
##수를
##군은
주요
가운데
##수의
##선의
드라마
##스템
데이
##원을
##스크
100
후보
##초등학교
##nd
##원의
이라는
대학교
역할
##으로써
남아
제공
##ro
월드
스페
##스타
##지의
다양한
##음을
##장은
##어로
2016년
인터
거의
##장으로
##사로
이라고
만들어
각각
표현
이루어
않는다
##이의
2018년
##자인
29
##하던
모습
수상
마지
##냈다
##인다
마이
연결
##지가
경상
이미
##수가
##였던
##전에
##스와
##머니
공식
##대학
##인민
시리즈
작은
##운동
이름을
##하려
##BS
분류
가진
지구
출전
필요
##일부터
마지막
임명
열린
알려져
##민주
따라서
높은
##리고
정보
##스로
2017년
지금
##가는
##성의
##점을
시스템
##위원회
##원이
직접
##력이
그리스
과정
공개
인정
2005년
영향을
of
자연
##대표
##시켰
##제로
이야
민주
대전
##지에
대신
따르면
##나는
보고
##어를
바이
##ra
31
항공
##ed
##이가
개최
기능
추가
##시의
##으로부터
오스트
##상의
##지고
진출
브라
##북도
##문화
활약
평가
시대
되는
않은
정의
##있다
##해야
그룹
##제를
인도
정도
후에
생활
노래
그가
아르
##군이
상황
유지
##쪽으로
##했지만
있는데
나라
부산
졸업
건물
2004년
프리
기원전
철도
##이드
말한다
서로
변경
역시
##선을
발전
##사에
비롯
인구는
여자
50
제국
되었
##수로
크게
보여
결혼
관한
그것
##위에
하였
학교
##id
않았
중요한
##르트
건설
제3
인물
##인을
관리
##전에서
##왔다
사업
거쳐
##적은
##세의
반대
FC
##지로
##들에
상대
뜻은
##인은
경기도
기업
완전
##부를
공동
189
##os
##ter
##원은
이론
2002년
##계를
플레이
##치는
##어는
##식으로
원래
일으
중화
요구
형성
연합
##니다
##킨다
군사
##문을
모델
만든
##원으로
##치를
##광역
##레스
현대
시절
##일까지
##되면서
##부는
The
##트로
노동
##특별
않는
지하
어떤
##ac
동시에
##대한
사랑
##수는
기본
##른다
이르
사이에
##임을
야구
실시
##ig
싱글
시작했다
##리오
##제가
민족
다이
##운드
##장의
##인민공
##군을
비판
##하였으나
지역의
계약
##대는
승강
학생
아닌
자동
##상이
소련
제외
레이
여기
##역이다
보통
##프리카
40
##회를
##대가
역할을
운행
판매
지도
##진다
혹은
전라
##ur
인간
##제의
전통
##정한
도쿄
##상으로
##하는데
##od
##이었던
명칭
2019년
2003년
##했으나
최초의
이동
처음으로
공간
이때
##주는
그래
##장에
특별
##됐다
##명은
##나다
##체의
##스탄
영화이다
##이기도
수행
교황
전문
종교
되고
##되며
특징
개인
##있는
애니
의한
하며
과학
있을
나오
기간
기반
초기
기타
서비
기준으로
도입
마을
달리
태양
##단의
비슷
##키는
기존
##ad
##소를
##호로
있다고
개의
2000년
##린다
##자와
바로
기관
위하여
지나
##카이
##적을
전국
2년
##서를
##격을
km
##성은
##장에서
컴퓨
##ent
소설
모양
월드컵
어머니
##호를
##체를
역임
가수
##이를
##독교
##갔다
일반적으로
##중에
국내
정책
출시
##시마
목록
##물을
아버지
##BC
경찰
유일
the
과거
##가와
지배
언어
##드의
##um
##과는
##드로
##혔다
##무를
이끌
##연구
##명이다
##트를
FI
##동안
연방
##기관
지휘
경기에서
공연
동일
주변
##te
##시간
##리로
산업
이것은
##고등학교
##광역시
##ation
##리와
부르
작곡
이라
##도에
##트의
중심으로
이적
##화가
##피언
2001년
오늘
##학과
##시켰다
##드를
##마다
그를
보내
비교
받은
적용
##관은
컴퓨터
추정
##의를
충청
기독교
건축
##하지만
##어가
작업
##호는
##군에
##메이션
받았
속하는
클럽
##위로
##구의
자기
확인
지정되었다
있다는
분야
##스코
환경
방영
가까
되었고
선정
담당
통합
떨어
받고
찾아
스트
노선
없이
방향
우주
열차
##동에
##체가
국가대표
피해
##리지
188
##방송
어느
TV
규모
때문이다
##ec
뉴욕
지지
두고
##류의
##당의
가족
##ri
##ot
차량
##트는
증가
##사와
배우이다
실패
##비전
##ow
##세는
##정에
그녀는
대부분의
이런
스페인
설명
##쪽에
##스에
개념
##ve
어린
애니메이션
캐나다
기념
##단을
이와
보호
##글랜드
최대
##하거나
##어의
올라
현재의
##르게
FIFA
자신이
##조의
활동을
사상
##쳤다
챔피언
상당
15일
수록
이상의
사고
##종의
서울특별
나가
데이터
##인으로
##회는
##제는
이름은
대체
##인이다
##부가
있지만
1년
걸쳐
##경기
##동을
##중학교
##트남
위원
2차
##시켜
##야마
##이로
##면에
##크로
##학적
등에
하나이다
최근
다음을
3일
없었다
1999년
등으로
하다
텔레
태어났다
##나무
##관을
있어서
멤버
1998년
##렇게
수는
##움을
예정
##으면
대하여
불가
인천
##적이
##겼다
최초로
우리
대구
뛰어
##식의
잉글랜드
##세가
##계의
예를
획득
있었던
자료
##원에
최종
##메리카
##ir
##op
St
##치가
20일
공화국
선택
선출
더욱
##기와
##구에
##심을
##자들은
##했다고
##스카
10일
조지
##성과
##ia
##드리
시민
##식은
개봉
##식이
202
구간
내려
이란
##단은
##un
베이
물리
지역에
조사
평균
Ch
##세를
##개월
정당
##성에
스포
##어서
부족
공산
동물
조건
##교육
##oc
보인다
##역을
명령
##인민공화국
변화
에너
전기
##했는데
선언
도로
연주
500
##학을
좋은
선발
자리
5일
어려
아시아
작가
헌법
현재는
서울특별시
연속
표준
##시키는
186
##th
국립
1997년
##덜란드
전자
3년
결승
북한
25일
점령
효과
고대
##난다
##렀다
반응
가리킨다
마르
이름으로
있게
30일
이들은
##한다는
네덜란드
불구
후반
메이
교통
##소가
##ag
예술
##호선
베트남
거주
관할
##명으로
##함으로써
28일
##시대
##라도
2일
이해
1995년
지상
오늘날
유사
폴란드
언급
##자들이
##내는
##ce
이유로
1996년
사무
7일
##회에서
##하도록
선수이다
그들의
35
승리
##었으며
출판
주의
소유
##구를
국가대표팀
단체
전에
정신
정규
60
##cm
##상은
##정부
소비
187
##쪽으로는
목표
##웠다
조약
##만을
1994년
4일
세포
그림
21일
##레일
##스턴
하나의
지속
공립
통일
주민
17일
하지
##ver
6일
1992년
##이에
##mm
27일
크리스
##진을
실제
명의
것이라고
8일
페르
제2차
이곳
소프트
정확
면적은
12일
포르
##ay
32
시설
아직
##일랜드
##으므로
대중
##학의
1990년
영국의
26일
##비를
16일
국회의
입단
18일
##모토
##라의
맡았다
버전
##과에
그런
강화
##주에
구분
##이지만
##랐다
##만이
이듬
모습을
실험
##상에
밝혔다
##정이
14일
드러
하나로
육군
9일
언론
분리
11일
고등학교
23일
불구하고
사용하는
말했다
##했을
제한
남자
22일
##되기
1991년
29일
##계에
유래
사이의
이듬해
##원에서
세워
##라스
##지지
거두
##자리
##관이
가문
##민주주의
분석
##단에
KBS
##치고
##주시
##금을
위에
그들은
크로
##지역
은퇴
##사카
알려진
13일
통과
불리
교회
바다
##소의
##메달
물질
##버스
##직을
##지와
##부르크
비해
보다
중에
이사
##골을
In
널리
등과
##ul
##시코
##나이
제품
##단이
##em
1993년
포함한
24일
마음
자치
영어
회사
##형을
의미한다
움직
친구
방문
##가의
아마
##거리
비행
경험
발달
##톨릭
제조
밴드
제4
나온
결합
in
프로젝
##장과
##루스
19일
##들로
완전히
##인데
스웨
사람이
설계
더불
차례
##로의
연기
##스테
오른
1988년
못했다
알렉
런던
바탕
하이
##체는
아프리카
부여
브라질
##법을
##하의
것에
전해
텔레비전
##베이
여겨
자주
갖고
더불어
요청
##지방
독일의
이들
요시
프랑스의
##아의
##프로
##르고
UE
배치
외국
##im
##베르
소재
인터넷
주연
##러스
정도로
##당은
때까지
##점이
나머
수준
##었던
##철도
##스티
##스키
유전
##정의
##선에
비롯한
오래
중요
파괴
초등학교
1989년
오스트리아
UEFA
제안
70
##이어
##산을
남부
주인
스스로
영토
광주
##소는
마찬
그대로
이로
스웨덴
마찬가지
목적으로
감독의
##로를
확장
바뀌
지난
##시는
불교
##트가
식민
만나
유명한
##사업
##위가
##경을
성장
않아
사라
##웨어
##릭터
##위는
스포츠
패배
##되었으나
슈퍼
법률
치료
있도록
##지에서
##관으로
##우는
추진
살아
사람들이
밝혀
많다
의하여
##가를
##스토
달러
##들도
##정은
##인과
존재한다
##르의
##회에
##선이
##부로
가르
##위의
우승을
##문에
가톨릭
기여
캐릭터
##회가
복귀
강력
초대
경쟁
##바이
##드가
##감을
##받았다
##지게
##되기도
공항
해석
먼저
스위
300
##주를
하계
경우가
일제
근처
##종이다
##선거
과정에서
##물의
이외
노르
강원
일어나
##없이
왕국
수용
단순
인민
필리
접근
주도
여기서
특정
있으나
집합
폐지
것이었다
##신을
개혁
##st
관측
36
그녀의
서식
##력은
들어가
##규모
불리는
80
선수로
##까지는
알고
작용
##라인
##레일리아
교수
##기술
아무
가능하다
기초
삼성
스테
##카와
이야기
라디오
##조는
제작된
아카
##스에서
자동차
##도와
##군과
##많은
##하라
경영
45
가져
않다
다만
##행을
조선민주주의
구성되어
##회사
도착
##오는
##TV
제국의
##화국의
조각
##소년
결성
##구는
때는
##디어
여객
##형의
비슷한
##일을
##자이다
북쪽
여름
프레
그린
##하다가
성립
해결
##어진다
히로
디자인
해안
##량이
##og
수많은
상호
선수권
거부
중간
행동
나무
황제
외교
##간다
남쪽
##수한
##크의
1차
##ap
##졌고
아시
반란
야마
##0년에
파견
사용한다
##and
제주
##이기
##하였는데
1986년
기록했다
상대로
지역에서
1987년
##속도로
##전의
부정
동맹
##고를
생성
임시
바꾸
4년
다르
##트리
1945년
지냈다
33
제시
의하면
발행
미국에서
오스트레일리아
디지
의원
##선은
##ie
##웨이
훈련
##했다는
지하철
##시를
공작
이며
##리트
대표적인
시행
유니
이렇게
위험
당선
승강장
타이틀
북부
##NA
##전이
만에
이주
분포
대해서
방어
투표
멕시코
##ard
##정보
##하기로
논란
재판
##어나
엔진
한국의
##구가
마찬가지로
번역
##자에
상징
형태로
##과학
근거
것과
##아가
##함을
##량을
윌리
처리
중에서
위해서
##ut
##요일
등록
##트워
계열
아일랜드
##관의
1984년
일을
##미터
대응
##인트
출생
##하이
미사
제5
##센터
시작하였다
끝에
다카
표시
##전은
부른다
##만의
시도
##았고
개통
##지션
체포
좋아
1985년
준비
##대와
몇몇
##화의
통치
##업을
##면을
##으면서
즉위
가정
그렇
185
##성으로
종합
##부터는
사용된다
##ab
문학
곳에
윈도
시험
적이
규정
있었고
있기
##화된
##한다고
이름이
보존
내부
##어졌다
회의
보수
비디오
에는
동생
귀족
안정
본래
활용
사용할
에도
##왕의
대사
떨어진
##점으로
하루
##리에서
유로
경상북도
보유
동쪽
혁명
##ion
##조를
##주로
중단
체결
제기
카를
조성
센터
경상남도
##교회
따른
##크라
다루
사진
대해서는
나머지
##인들이
있지
지적
38
이스
##사에서
##가이다
나타나
직후
##당이
얼마
종류
에서는
태평
주인공
##시즌
서비스
관련된
and
##물이
촬영
음력
오후
계승
천황
오브
홍콩
살해
내각
디지털
완성
표기
##해졌다
오사카
스코
말을
떠나
##문화재
강한
##량은
##수이다
##ine
수비
것도
못하고
1982년
팀의
유대
31일
##디아
##오카
포르투
##아시아
베르
##였고
##습니다
시기
##선에서
못한
바르
물론
이집
옮겨
파이
대륙
##로가
##니는
금지
1세
##국이
##력의
##연합
##가로
##리포
유일한
해외
가능한
친일
##러운
안에
2세
윌리엄
##나가
##하에
##되자
34
##ess
이루어져
##학생
위치하고
후쿠
스튜
##권의
만화
에이
##먼트
묘사
##롭게
취임
##려고
##소에
##시키고
##역으로
##내고
신라
달성
180
##자들의
##소로
##안을
이슬
중의
충돌
의견
##시킨
각종
정부는
미래
만약
베네
1983년
아내
종료
지명
아니다
평화
간의
뮤직
부터
MBC
이용하여
소개
##티아
관광
##체로
##계가
남북
인근
일어난
##력으로
전달
##와는
사이에서
2개
낮은
##나라의
안전
경우에는
##주교
서쪽
##인지
근무
동부
필요한
##치의
1980년
주목
미술
승격
문제가
184
위의
##ak
알렉산
발사
위치해
해군
스토
중국의
가까운
에게
뒤에
제거
##로로
5년
경기를
##전히
##당을
지역을
##서로
2020년
헝가
명예
전환
##치로
참여하였다
나누
도시로
##티나
비밀
##임스
파일
##ity
관계를
90
최고의
##시가
##분을
가입
이래
제도
합류
만들어진
정치적
##분에
문제를
둘러
##조가
##ys
만들었다
되었으며
##적으로는
##였으며
실제로
너무
##국은
##단으로
전략
##ud
차트
##량의
##승을
네트워
신문
##워드
오르
수가
출신의
정식
주는
##작용
생물
##고로
전라남도
II
계산
##니스
구조를
건너
##준다
Al
불린다
반면
전시
실행
갖추
아키
##라우
전반
##피아
바탕으로
##물관
그려
천문
제목
##nt
1981년
기존의
부모
##권이
##석을
종목
de
##지도
부문
마련
아우
바람
엘리
##ell
##되었던
##상과
저항
마이크로
하기
그해
서부
##론을
##인들은
인디
##시로
기후
##igh
##10
1979년
400
상업
사실을
재직
##버트
주었다
인식
##만에
##프는
사람은
세종
이번
집중
기록을
강조
터키
가는
##낸다
로스
##계는
##산으로
연장
사령
통하여
##즈의
배경
사회주의
나중에
넘어
37
의사
오스
작성
성격
##미널
##그룹
1972년
##이던
##산의
##은행
##학년
##리어
정착
##ber
이슬람
##ip
##ist
##상에서
##메달을
불러
유형
55
영역
적극
블랙
공급
##까지의
최소
##점에서
무렵
뿐만
##8년에
##크는
기능을
인한
Re
1973년
성우
케이
허용
제외한
하게
##민족
보여주
항상
##라노
겨울
국방
젊은
##차를
##질을
일반적인
##파의
39
아나
일이
##비가
확대
올랐다
원자
##장이다
##0년대에
이후에
##두고
핀란드
그래서
42
사람을
##ang
입학
##해를
왔다
지진
포르투갈
##종이
대회에서
정부의
관찰
##교의
사용하여
##시대의
연극
##원과
울산
여전히
포지션
##졌으며
받아들
##프가
시대의
마사
편집
생활을
부근
보도
##공항
##리스트
보이
##생활
유리
183
##리포니아
덴마
만드는
출발
##6년에
마리아
판단
##세에
이승
제정
##세포
##메이
전투에서
보면
##가가
##적이고
채널
##로스
##단체
##물로
통신
동료
범죄
##르타
매년
##산업
높이
##ne
##래프트
##되었는데
등은
모스크
##보다는
국왕
위협
##에게는
정리
확보
문서
선의
##ill
장기
붕괴
##est
3개
있었지만
수학
1974년
##과를
쉽게
시의
사용되는
##ub
##기업
다섯
br
##기고
충분
##밖에
남동
##호가
뒤를
가리키는
밖에
75
제1차
남편
##계에서
게이
캘리포니아
하자
##주가
##화에
시기에
경우도
##관리
채택
고구
합병
동계
교체
전개
현실
##면의
노력
##서관
##시오
##았으며
##ers
방식
##7년에
에드
마쓰
에스
##법원
기계
세르
필리핀
시작되었다
세운
승리를
##ue
외에도
민간
강원도
감소
말이다
나는
일종이다
중학교
평양
공격을
##사령
하면서
얼굴
전사
##all
신경
강력한
Th
점차
득점
##tic
등에서
해방
아름
없어
태평양
측정
사람들은
귀국
화학
떨어져
계약을
150
자리를
##CA
탑재
변호
책임
##비는
제6
그곳
시청
녹음
##당에
잠시
구축
인간의
당시의
##의로
##드와
##라운드
##부와
의해서
##5년에
소프트웨어
사용한
이루어진
충청남도
지금의
본관은
##로서의
##개발
##리기
수립
인수
관심을
조정
해체
##테인
##대에서
Mar
갖춘
1971년
구역
집단
##동차
##ph
증거
건강
##부에서
자본
##도시
##전쟁
설립된
##었으나
##하려는
정보를
##문이
라틴
##었는데
길이
##로나
라이브
주장했다
##데미
##트라
개정
##신의
##세기에
여행
인사
##협회
나폴
##사회
요리
자체
죽은
레코
종종
알아
고양
불과
##uc
특수
공공
대형
경향
##세이
만족
##력에
구단
침공
##라엘
기획
사후
##설을
##일보
블루
피아
##9년에
##모리
정상
##당한
##ik
##ea
남성
중화민
시내
예선
수정
##력과
이끄
간주
무역
##티브
##해의
제임스
1963년
주연으로
어떻
##면에서
한다는
##되었지만
대립
##틀랜드
발표했다
나뉘
죽음
몽골
##로운
장애
대상
##네시아
사회적
회원
파리
##받아
##구로
조선민주주의인민공화국
고구려
삼국
##FC
고전
폭발
##계로
10년
자신을
식물
이끄는
트리
##어들
이것이
개봉한
쓰인다
편입
이스라엘
##일러
##무원
64
임명되었다
나카
에피
때에는
농업
전차
힘을
방식으로
##약을
##레이션
수입
뛰어난
##사키
프로듀
##용으로
형식
개편
루이
회복
사람의
국회의원
태어난
나오는
동음
받는
##류를
48
메이저
##스케
##자치
속에
신설
연맹
41
비교적
##ice
카메
##하다고
##자들을
##했기
##ran
1개
오리
인기를
사례
저장
함수
세이
##자에게
##어와
##화는
설치되어
##대전
문화재
제7
##다운
네트워크
##키아
사실상
##적이다
기억
##점에
1970년
후손
설정
아랍
##료로
했지만
##하고자
##명한
복잡
아르헨
근대
검은
대규모
하늘
보이는
##라비아
한다고
불가능
흔히
##박쥐
##초등학교는
나서
어떻게
동음이의
우선
179
위치한다
아주
모스크바
##어져
초등학교이다
##셔널
4개
내에서
스파
원칙
발견된다
감염
홈런
##리학
붉은
북서
시대에
##룬다
초반
편성
않을
원작
플로
조금
##족의
윈도우
본격
부인
181
스튜디오
##our
##사이
내용을
##제에
박사
##4년에
외에
##소에서
스피
##형이
과정을
구체
잘못
시각
열대
기사
##싱턴
##ss
전혀
있었으며
이전에
발매되었다
중화인민공화국
##데스
하였고
CD
구성된
인하여
##종으로
##군으로
팀은
머리
속에서
지역은
시장
##실을
프로젝트
암살
이하
에너지
형태의
##터테인
하는데
행사
도움을
##었지만
참석
##려는
Un
글로
##국을
##니어
카운
증명
유명하다
때에
Le
##품을
보급
통한
있었으나
##드에서
1976년
사는
고종
##미디
##2년에
##정책
##크라이나
확정
짧은
1위를
43
정도의
대상으로
본선
##분의
##구역
19세기
##료를
은행
##동의
K리그
##ge
공부
했고
1978년
물러
탄생
An
##후의
그에
Ne
사용되었다
마리
##시와
##지면서
개선
##신이
##전으로
160
##지기
비난
##프의
되면서
재정
De
한때
65
브랜드
LG
창설
2개의
##어도
##서에
등장하는
##인들의
오픈
유도
교토
##영화
문자
##권에
업무
철도역이다
##ST
Ar
클래
아카데미
뜻이
데이비
비용
##대회
47
되지
투수
항복
오히
##권은
북동
##받은
토론
우크라이나
##if
##다이
수여
##인에
##하나
##일의
1968년
적은
##라가
했으나
##법의
중반
시티
가격
선고
애플
##20
태어나
버스
장착
소년
내에
##법에
주교
핵심
단백
태풍
##하려고
나이
##이었고
헤이
가로
##해진
비율
##국에
수원
전역
공포
역사상
##시킬
유엔
##형은
1969년
##았던
오전
청년
노예
##슈타
##간에
##ong
이집트
##스포
##겠다고
00
추정된다
1975년
형제
추측
SBS
신앙
까지
협력
타고
현재까지
44
##공업
출마
동일한
북아
##art
뜻을
절대
##점은
##이란
고향
이중
세우
요한
##1년에
재위
세웠다
다다
공유
##오프
##테르
있었는데
오랜
맡고
고정
무기
단일
##서의
일본에서
만큼
없고
투입
##경에
베를
베이징
##여자
확실
넓은
얻었다
##함에
아시안
세계에서
포지션은
제작에
전설
오히려
1960년
워싱턴
##마스
##체에
무장
##일은
##보드
##산은
만주
이고
##슨은
권한
역대
대항
스코틀랜드
스크
##av
##ry
기자
##도에서
구별
##같은
목적
이끌고
##유의
##스럽
보였다
예상
했으며
남서
##다면
##로도
##자이
산맥
##수와
##문의
요새
선생
##ob
##서가
관심
훨씬
##바르
청소년
지닌
멸망
1948년
그에게
활발
##리즘
##당했다
경기에
금융
뜻한다
##여서
저지
아르헨티나
자는
정부가
나와
기반으로
54
이탈리아의
광고
##법은
수출
창립
인공
플랫
서양
원정
계급
##리게
##아버
##번의
생겨
##리노
##의의
46
솔로
마드리
1977년
이후에는
##안에
방출
마침
심각
지낸
##경의
##시설
##se
카이
뉴스
##색을
##스리그
3차
##무라
##면이
그것은
##경기에
##지원
##가에
은하
됐다
앞서
작전
주식
끝나
건립
이른
##ight
다니
사용하고
오토
##하마
점에서
1964년
거절
러시아의
##제국
##BO
시간이
아침
##드에
##받고
제출
##하다는
1950년
발표한
약간
##호의
고등
반복
##이었으나
프란
##예술
가능성이
정복
국가의
관할한다
##동이
##구와
발생한
살고
전용
판결
##나의
##0만
##니의
부활
어렵
통해서
전후
##경찰
도움
##다른
##에르
##OS
거대한
말레이
팀이
강의
##ian
182
행성
##문학
159
철학
##3년에
##로드
##기에는
생명
다음은
차지했다
아메리카
##유럽
##음에도
##브리
취급
##ich
간단
##더라도
US
지식
이제
아들이
출입
공산주의
##종은
시작한
역을
##버그
길이는
##저우
##언을
인터뷰
##수에
##판을
건국
보는
1967년
##음악
1962년
##교통
차이가
청나라
전쟁이
해서
타이완
에피소
경성
원주
건조
비록
##비의
아테
베이스
코미디
계획을
병사
##화로
지원을
결과를
##나와
##신은
양성
##ain
1946년
오래된
머물
가게
모리
##로그
프로그램이다
되면
##관에
해당하는
##리케
위해서는
53
하드
그런데
합의
갈등
조합
##사인
51
전주
이르는
PC
Com
주어
##지인
##경제
김영
신인
처음에는
삼각
의료
금속
##소프트
##쿠라
투자
한번
강제
##항공
전라북도
박정
독자
52
##타를
##추어
전쟁을
Sh
##인민공화국의
트레이
##나이티
대수
소비에
슬로
대비
이야기를
장악
##렸고
##ate
##지이다
##per
장식
##면은
주고
##익을
178
하면
이용해
대성
##자기
포함되어
상당히
유나이티
이유는
약속
거리
보아
얻어
높이는
아파
벨기에
연재
##사건
취득
이었다
##즈는
육상
경계
의회
소수
후지
##지며
이것을
##배우
플랫폼
56
그것을
플라
##병을
제8
앞두고
미나
##소와
##당과
##분이
##스러운
무엇
이용한
운용
##정으로
진화
##술을
점을
##만큼
공개된
개시
요코
속한다
히데
1965년
##산이
논쟁
베를린
활동하였다
스케
##보를
##조에
에어
##자들
통제
붙여
팀을
단백질
49
자격
도달
이나
후에는
혼란
##선으로
사망하였다
##형으로
대표팀
장치
사단
FA
이민
경주
대공
번째로
빠른
##령을
##ount
방향으로
반발
식민지
##체육
두었다
온라인
##물은
##류가
##의회
고속
때의
##안의
호텔
기록하였다
##마의
일으켰
영입
받지
백작
알게
신성
지붕
높아
도중
보컬
##리아의
##드시
##문은
##이었으며
도망
1966년
체계
대략
1961년
보냈다
##기압
##히는
방법을
때부터
반영
##차로
##트와
1000
1949년
시작하여
마이클
미드
동남
소장
흡수
##수록
규칙
5개
시즌을
엔터테인
##중앙
800
Sp
시간을
##본을
인도네시아
로버트
##행위
프리미
99
수사
##io
보조
##니아의
왼쪽
상륙
노부
빠져
시작으로
그러한
##조판
각각의
##시티
##ly
강점
곳에서
레드
##지자
포기
넘는
채용
##일본
검찰
미니
합격
사건을
탈출
불법
##해도
포위
SK
부상
응용
##국에서
소녀
가을
##주와
공을
600
제대로
발표하였다
없다고
58
##차례
##네스
3개의
앞에
동의
부임
##석이
생긴
오른쪽
공식적으로
종류의
##크를
사망했다
##음이
구속
선보
작품을
1로
니콜
시에
잇는
to
##조합
방사
승진
나치
아미
카운티
보낸
세인트
받게
국도
미디어
##마트
##치아
경우는
지니
##타이
기록한
거래
##시킨다
역임했다
이전의
등급
##비치
헝가리
장군
명이
출연하였고
갈라
달라
한반
다르다
##ER
1940년
맡아
이들의
프로세
자살
진보
##물이다
##교를
##전문
##연맹
##에게서
Con
진입
말았다
전공
장관
##주년
##모를
사용되고
##화와
임진
##증을
##르가
연산
수송
공통
국경
운전
웨스트
동작
했던
##만은
논란이
그레
수상했다
것처럼
사법
##에만
##공사
Pro
않았고
총독
##조사
라인
모아
##세계
##바라
오페
##oh
2면
##하였지만
지키
95
##였으나
국무
##통신
가서
어떠
집행
하나는
소비에트
1위
##노동
중세
##ort
##ord
##겠다
##님의
효율
이성
지방의
법칙
##단과
내의
##법이
##이와
##보는
반드시
##부인
공화
특별한
개최된
콘서
선수가
##ens
자세
탈락
##고속도로
아들로
챔피언스리그
##실은
##베르크
##번째로
여기에
주둔
이뤄
##들어
명명
선조
##ff
유사한
해에
66
학문
총리
##천시
보장
논의
변환
1944년
올리
##되면
롯데
예측
##생을
최다
미사일
돌아가
리더
성인
발견된
##씨의
##AR
기술을
세르비아
양자
죽었다
쓰는
수집
km이다
체코
김일
##리우
방영된
후속
고용
운동을
177
##왕이
대기
동원
##들이다
깊은
코드
##씨는
##기간
중이다
##티노
생존
1941년
전철
존재하는
브리
아사
##미를
진압
##으로도
57
##플레이
헨리
변경되었다
3세
미야
서버
분쟁
하였으나
무덤
요소
저작
끝난
둘째
베스트
##누스
원년
목소
역이다
지급
트로
##ON
작품이다
경기는
김정
##재를
##식에
피해를
학술
##동으로
주관
회전
출간
출신으로
맞이
군대를
콘스탄
나타내는
지냈
연출
##패를
농민
의존
지어
잡아
형태를
해산
배출
st
##차가
##틀러
합성
re
천연
파라
남은
##마이
독립운동
##석은
개신
되자
열렸다
##라를
##키스탄
마케
세력
제어
##ok
##개를
창조
포도
##상태
대학교에서
것이며
그와
문헌
반도
글을
사건이
복합
##터를
독특
##산시
카르
##시스
들어서
선교
##미의
상승
하였으며
88
##도르
서비스를
##없는
마지막으로
##통을
전파
자이
사립
외부
좌우
파악
##미는
승인
##기에서
이후로
도쿠
##리우스
##지컬
##명에
트랙
##프레
평가를
1958년
빠르게
##국으로
이룬다
##터는
목표로
엄청
창단
##축구
다수의
##미가
정확한
어떠한
##자료
참전
6년
동아
##ov
1956년
IS
능력을
항성
바라
덴마크
알려졌다
제외하고
동성
사태
일정
20세기
일찍
받았고
계기로
##적의
많아
##원이다
않으며
개발한
빼앗
##카이도
##면으로
대개
스위스
형사
##조선
모여
##리나
##AS
스티
실질
이시
85
##프리
관료
늘어
##AT
기대
##항을
한국에서
국제공항
둘러싸
공군
##우리
##end
##iv
##트에
사운드
##ae
검사
##프를
교환
미군
연대
군주
되며
아라
##산에
위반
해양
그레이
##겠다는
아버지는
완공
##ant
##바로
1980년대
당시에는
국회
메이지
풍부
활동했다
정책을
63
발매된
썼다
신뢰
자녀
##뿐만
충청북도
황금
갖는
불안
일부는
##났으며
120
##으니
##방을
##기까지
##주의를
올려
급제
모양의
가졌다
##ct
##이므로
##메리
라고도
대부분은
포함하고
오스만
브루
극장
보안
1일에
영화는
왕국의
##종을
##율을
지상역이다
보관
여객철도
##iver
조작
특이
0으로
트랜
##리다
##ment
마치
인접
##ld
##구에서
##리히
성능
62
받을
스미
새겨
##성군
포함한다
부산광역시
나다
한정
지은
인기
향상
##미야
##론의
흘러
##데이
니시
분할
##천군
1939년
68
차별
연구를
그들이
##주에서
7년
1919년
##고는
헤르
단독
밀도는
우려
점점
지내
##전과
반대로
녹색
출장
작품은
조선의
##19
뜻하는
1947년
예정이다
그때
테이
민주당
##토리
페르시아
공업
기록이
간행
메인
현역
##터리
##이센
전통적인
학습
##포르
170
예수
말에
##퍼드
2000
##락을
##주었다
##머스
##곡을
1959년
받는다
신청
##학에서
##질랜드
##kg
피아노
##연히
이기
노벨
예비
희망
##화되어
무게
부르는
##크가
불렀다
시리아
##임이
일치
의미를
##동은
4개의
시카
득표
아스
##제와
##건을
음식
##장인
역사적
##타르
##ure
##선수
당초
위성
크고
대통령이
프로그램을
명확
메시
KBO
뜻으로
텍사
역으로
##ib
성을
마침내
오랫
72
내용은
갔다
##리적
##현의
방법으로
분열
수영
있음을
1954년
지금까지
조별
처형
로켓
상품
하나인
나이로
뉴질랜드
제일
대한민국에서는
플레이오프
유형문화재
##기념
##선과
쓰이는
없다는
기둥
개막
출범
테러
관계가
후기
중화민국
어린이
##되었을
함락
제작한
활동하고
자신들의
감독을
주장하였다
1952년
누구
언제
##름을
올랐
1990년대
##트에서
DNA
성적
알파
문제로
쓰고
시즌에
없으며
것이라
느끼
단위
마이크로소프트
##책을
향해
##qu
오랫동안
구현
터미널
프로그래
조절
준우
##BA
98
Me
골을
직업
후보로
##조직
##사우
##민주당
학위를
##하였던
보병
##복을
##경이
##사관
##무부
##마을
162
잡지
그렇게
나타난다
##라이언
창원
##투스
나왔다
##일이
레오
잉글랜드의
합쳐
가나
##질이
왕조
##라와
##ore
이름의
맞아
것이라는
영상
인종
가스
##장군
편찬
평안
##마르
등장한다
의무
제9
이후의
졸업하고
대표하는
명칭은
가지는
##무늬
적절
추천
군의
##토의
일본에
82
펼쳐
##치에
##하였다고
데이비드
안에서
##디션
챔피언십
1942년
만들어졌다
고문
임금
경우에
74
번의
##자로서
교육을
연관
완료
##판이
포함하여
이루어졌다
뮤지컬
##공화국
##주의의
스카
##온은
##man
76
##왜란
발굴
161
##시키기
군인
##났고
##해가
선정되었다
2선의
분위
성향
작업을
무너
##요시
고유
보물
##산화
##총독
부대
##계획
##신으로
##거운
##시험
##iz
##ith
재배
##되었다가
저서
##진의
아이돌
1920년
##텐츠
한국어
실현
주지
유기
군이다
임진왜란
소송
59
주전
1955년
##으로서의
##개혁
##오스
##방의
크로아
한글
활성
안동
명을
목록이다
역은
2008
1953년
You
시작된
행위
무시
##게임
발견되었다
##터가
##국민
1943년
네이
음악을
부하
침략
출시되었다
Count
제이
정지
이르러
박정희
도와
유행
com
시인
##진이
신호
##생의
Se
통산
규모의
AT
##그라
최우
하위
##들로부터
스페인의
##세로
화물
길을
경제적
NH
조선시대
유일하게
망명
취소
샤를
중인
73
승객
주택
##재판
시작한다
정기
가담
소방
감독으로
61
혼합
##해져
사람들의
발발
지켜
이라고도
프린
확률
바뀌었다
175
거두었다
받아들여
침입
##각을
정차
##체스터
나들
정비
이루고
가치가
##IA
프리미어
기울
속한
##루가
아테네
저술
희생
프라
박물관
방정
클라
DV
세계의
해당한다
1면
##보살
등판
플래
##앤젤
놓고
포켓
Be
##조로
##내에
한나라
나들목
##치게
##사이트
1957년
중에는
질병
##ove
##레옹
진주
영웅
##화한
700
장교
##섰다
##니가
상위
제공한다
시나
지시
개신교
공헌
사냥
##m의
##뮤니
##안은
감독이
독특한
나고
다르게
활약을
입장을
근본
마무
##에른
프로이센
도요
페이
대리
##화되었다
SS
김대
##평가
연결하는
##ock
로스앤젤
올렸다
확립
새롭게
정치인이다
일부를
부분을
동양
AP
##이었지만
얻은
국민의
지금은
리처
##터의
데뷔하였다
다스
의혹
2012
어디
처벌
도시이다
상당한
##파는
법정
부상을
통상
나폴레옹
##ast
단편
해야
매일
치러
빅토
##소송
어깨
않게
전형
##one
조지아
편이다
67
그래픽
원소
장남
자리잡
카드
성적을
이들을
주최
개입
영업
##타는
서울대학교
##자들에게
##였지만
다운
##어야
IC
신학
상태로
##명과
선거에서
어려운
인디언
도모
77
유한
멀리
##표를
아티
##어이다
##스럽게
다수
##경은
##진은
176
크기
중부
##령이
앞에서
혐의로
무한
##론은
사용된
##동과
사임
추구
##사단
163
들고
소속으로
알바
96
다케
##클레
분명
특정한
설치된
곡을
스마트
의학
인쇄
##ational
총선
단지
사우
미드필
변화를
고속도로
철수
지역으로
나타내
민중
접촉
말레이시아
##체와
조종
바이에른
단계
##함과
##실의
준다
##가타
광복
##하지는
받았으며
따로
##ind
##사무
민법
현상
6개
##격한
He
상황에서
##되는데
계통
164
일으키
절반
##우의
아름다운
임대
벌어
체제
공연을
액션
다음의
연고
Am
상하이
##양을
맡은
##쿠스
만들고
인구가
Ro
드라이
자극
##고등
기다
의식
##들에서
##류는
2010
설립되었다
상대적으로
이혼
##공원
마르크
인지
1만
##로마
WW
하에
##영은
##론이
대부분이
화재
##석의
시위
동해
징역
유럽의
김성
루마
##드라
##ect
시카고
골든
내가
심지
##씨가
##슬러
작품으로
##가인
로드
지위를
158
기회를
가이
##국제
##층의
미드필더
##입니다
##km이고
곡은
다소
밝히
승려
포항
후계
리버
##고기
궤도
가문의
개조
연예
제공하는
사업을
##하므로
변형
재건
주간
개칭
듣고
1970년대
##ath
내셔널
병합
##우주
넓이는
##었기
타임
##관계
##왕은
인권
##EC
공사
와이
##ory
선전
찰스
심각한
보았다
리스
오프
해상
가와
##로와
해도
##대부
on
가치
##파를
세력을
##자키
존재하지
곳으로
탈퇴
개설
기상
나누어
##루는
운영하고
돈을
스키
##영의
86
초기의
##색의
프로토
오직
##레인
내렸다
##ng
##안이
156
김종
나아가
보유하고
못하였다
텍사스
조선총독
##차는
##비스
참여했다
폐쇄
##토니
설득
##페이
통계
노스
1936년
##보고
분노
##동생
##린은
사마
소련의
지도자
##함이
##등을
가진다
##일로
71
##주의적
브라운
이름이다
78
8강
두려
##브라
##치지
코르
##인도
금메달을
발탁
히틀러
돌아와
필요가
싱가
##sh
노르웨이
##주고
사람들을
AFC
##포를
노래를
반란을
County
전직
##시에서
마크
##네이
후원
165
엄청난
시리즈의
Sc
##에이
대체로
임의의
자리에
##ust
##르기
왕의
##aw
##구치
이전에는
프랑크
일어났다
필요하다
그로
몰아
바닥
참조
##ond
사실이
갖추고
왕이
도시의
이로써
93
조카
하느
##되었다고
##드레
일시
2013
않지만
일정한
##별로
벡터
효과를
##세대
차이
벗어나
##부대
투쟁
##에서만
1938년
##메리칸
파르
##기록
나타나는
##역의
후쿠오카
기록은
내용이
##슨의
##동맹
1번
이른다
##베르트
연구에
87
안드로
장비
##타운
미국과
전부
1960년대
상을
전력
행렬
##사전
##색으로
자전
해리
행동을
##생물
있었기
완전한
교향
소멸
##연을
97
만다
호는
140
출연하였다
진행되었다
비례
##법으로
##스트로
##루를
한일
홍보
속해
전까지
84
##족이
말이
##점의
점이
##ug
비롯하여
##었을
##었다고
가고
자라
다리
되는데
문을
##야의
비상
라이트
일어나는
의심
##리그의
번호는
##시리즈
적합
쓰여
시스템을
전한
못하는
맞서
동안에
DVD
부담
대통령의
프리드리
남쪽으로
##미니
##문제
나타낸다
노출
성공을
곳이다
##tt
관여
발생하는
CP
세상을
##역이
나온다
정권
포켓몬
얻을
여겨진다
선임
168
빌보드
여러가지
##부장
접한다
정교
부친
추기
속의
여섯
장수
클레
이명
##듯이
##타카
공중
92
있었다고
섬의
##학자이다
##티오
지구의
전신
##트릭
##강의
##남도의
학살
이른바
##고가
동북
커뮤니
더블
시상
역사를
천주교
화성
##정과
1951년
사망한
부분이
##tern
사용하였다
1918년
대의
말하는
##이라고도
해발
##부사
협회
##격으로
개체
명나라
천안
지니고
높다
전면
전송
복원
터널
선박
작곡가
##오의
외국인
수상하였다
향토
##AN
블라
아이디
집권
##례를
2016
Ma
루이스
남겼다
##평균
##피스
동방
위로
태양의
그리하여
공화국의
제10
표면
##박물관
##파가
무사
2011
##ack
잠수
관직
상속
책임을
1의
불렸다
특징이다
구입
논문
##AM
유학
##개가
1937년
농구
한자
이후에도
크다
탐사
화산
##ood
유효
눈에
##타로
##질의
사퇴
##ary
아들인
사우스
종사
칠레
완벽
관련이
순간
파트
창작
우리는
화이트
올림픽에
##련의
도덕
끝내
##원군
재개
지지를
시사
Co
명령을
유치
##자동차
숙종
##마는
##11
가슴
##했다가
어머니는
드래프트
154
끌어
세계적으로
2009
보스
세웠
현지
다음날
연습
히로시마
살인
즉시
회장
이르렀다
1930년
떠났다
인용
##백만
이상이
##루의
크리
##행정
비트
##BM
##신문
부진
##인들을
발음
##연대
##키가
##혁명
일부가
없을
밀려
JR
파워
패션
8년
##디움
대한민국에서
도전
돌려
대통령은
양의
운영하는
북쪽으로
##망을
가수이다
태국
갑자기
모바
수리
전쟁에
##ric
##호에
166
데에
##다란
##타의
게임을
대회에
중학교이다
내세
싸우
HD
화려
69
한성
호소
에르
하기도
##pe
경남
위치를
기소
재학
##양의
##활동을
오페라
성남
##국가
1932년
주장한다
##키의
##마를
##우가
만든다
위원회
##물에
2014
게다가
152
##과대학
물을
145
달려
나라의
신체
부분은
스프
십자
선출되었다
알고리즘
프로듀서
발언
수요
##리며
##속에
157
##영을
##베스
94
##식과
석유
신화
였다
이들이
티베
약칭
초에
사용자
도서관
10월에
1914년
전쟁의
89
al
가공
##ial
##라고도
벌어진
##처를
루트
임무
아래와
분해
주장을
##되어야
미국은
격파
##야구
전쟁에서
그것이
엔터테인먼트
연간
##만한
##아이
원주민
행정구
유배
##받는
근처에
올해의
측면
언덕
장소
미쓰
차지하고
않으면
cod
##16
싸움
초기에
##중한
2로
기록되어
참가했다
정체
줄어들
##up
##12
상태에서
Ph
##미르
들어갔다
남아프리카
##만으로
내놓
##계약
에드워드
갖는다
만한
발간
사용했다
자이언
##에선
##즈가
책을
이끌었다
개국
히트
##실이
##등의
1인
연결되어
들면
20년
이루는
올림픽에서
보여준다
함경
##비로
따서
남아있
상황을
사전
155
##학자들은
되돌
##공신
강릉
공주
쿠데
특성
테스트
##ire
##lan
로마의
Wor
양쪽
청주
개찰
##분으로
1935년
분기
##리안
우수
수의
서술
나왔
드래
방해
기병
추가로
Te
단어
역에서
심리
##포로
강남
최우수
Sch
2번
타이거
작동
##0m
방식을
MS
시드
83
##코스
당시에
권력을
역임하였다
3대
후임
##크래프트
##15
##목을
분야에서
복잡한
권력
##이닝
방지
토지
열차가
없게
##인에게
##법인
##데르
##ence
수석
##타마
화장
##달러
상대식
분자
보건
##어버
##평을
##렸으며
거짓
##전에서는
##행성
##하여야
단순한
브레
Joh
꾸준
2015
인조
참고
##가시
##조참
주에
12월에
수소
##게는
##하시
##베리아
##ris
기록하며
Bo
167
디스크
중추
##린의
프리드리히
##ont
밝혀졌다
구매
소식을
최대의
##공산
##48
프랭
직전
투어
##소설
백제
##감독
1933년
WWE
##페이스
상관
피터
확산
신도
##아는
재임
탄핵
##OR
172
1910년
일으켜
신의
코치
##되지만
주기
##츠의
상실
조선시대의
##왕후
153
받아들이
##age
미리
입고
폭탄
마무리
이온
1924년
그들을
앞으로
##되게
##비에
지속적으로
암컷
##라에
##사이다
이라크
##천만
##역은
##단이다
체육
문제에
능력
오키
복무
순위
배포
2017
아버지의
서쪽으로
위에서
크레
##고의
전투를
##판은
레알
이웃
##환으로
게임이다
##느냐
대상이
그곳에서
암호
구글
참가한
조건을
개별
고위
로스앤젤레스
동쪽으로
##IN
Par
##슬링
입단하였다
화합
오카
##았으나
디스
##범위
영화의
하여금
성직
캠퍼
##역에서
출전하여
##개로
등장인
아오
3월에
##과정
문제는
검토
형식으로
##왕을
##ide
요코하마
개방
139
명칭을
##파로
##시스코
작사
후인
##감이
항의
##발을
##ivers
대장
##가락
사랑을
지향
1934년
밝은
폴리
선포
올스타
##우를
##아서
##렬한
이재
##이치
벼슬
리처드
바둑
왕조의
##조차
모토
강등
스탈
##서와
9월에
##름이
##land
가까이
걸친
##투아
사도
##관과
OS
포트
1928년
특징을
문신
##공을
방법은
했는데
##로서는
##니스탄
말로
2018
뛰고
일은
직원
##나카
업무를
##폴리스
포함하는
사건으로
청구
##는지
##거래
기본적으로
##보호
##목에
위상
질량
캐나다의
글로벌
##학교를
##레나
My
정치인
사건은
##리언
##관광
참여한
아래에
지리
대량
독립을
##모가
의미하는
자금
대동
가상
노선을
별도의
서구
손을
교류
나타났다
##본부
계속해서
재능
##주의자
대표로
프로그래밍
##환을
유고
추방
##특별자치
몸을
수십
웨일
유통
##시장
##형에
개념을
인천광역시
2세는
##미술
북아메리카
도쿠가와
이자
있으므로
##해군
멀티
##ah
##ame
그렇다면
좋지
##비트
단순히
서서
##ive
##코의
개명
충분히
Wh
교회의
속도
##친다
번주
본격적으로
보험
Col
2007
돌아온
되기
조선민주주의인민공화국의
##기인
전문가
오늘날의
가마
##son
수술
그녀가
대대
연료
보이지
##교는
엑스
오다
모바일
입장
79
수호
게임의
성경
##키퍼
이벤
현존
##열을
##방향
##ID
000명이다
토론토
##IS
##유가
사람들에게
16강
원인이
##지마
##조건
##동물
##중인
##즈를
18세기
09
필수
환승
이적하였다
나고야
174
##양이
2층
복음
위대한
자원
산화
전화
##기구
배경으로
거느
크로아티아
최근에는
지중
##무네
##정치
기도
본질
영국에서
앤드
노동자
##니즘
경기가
구성하는
열매
##중의
시가
토착
흑인
아메리칸
넣어
소리
일종의
콜롬
130
출신이다
권리를
타격
용인
임무를
제도를
무대
##산군
이외의
개척
고급
사찰
##중이다
주력
##론에
##율이
##중을
##클리
원시
탄압
가난
제후
##주군
동일본
ST
Man
##학은
##종합
##했었다
맨체스터
집에
##호와
공장
##하기를
부동
세월
드물
마음을
##AC
불가리아
인기가
소프트웨
codice
골키퍼
8월에
사가
세부
##스팅
병원
이상을
##족은
원래는
철거
보여주는
특별히
대법
##케이
##tive
##iss
고객
의정부
##그램
유나이티드
4대
##유를
할아버
아버지가
중성
상태를
이외에도
알레
New
자랑
보편
시조
입력
파크
AC
마주
그리스의
Ad
실천
영구
6월에
151
하와
재생
박근
논리
비잔
진학
##같이
##지면
오버
출연했다
소집
여성의
##노스
##실로
부속
사회의
일으켰다
이날
결의
달하는
열리는
##OM
전남
110
##스트라
개인의
##비히
변호사
쓰러
##로에
그러므로
5월에
##00만
세계대전
스티븐
대화
상주
전동차
##기지
남극
달아
행복
##제도
미국으로
태조
##ft
이용할
##되거나
남녀
사막
국정
수컷
혼자
이익
전북
커다란
매주
편의
##ck
가설
사람들
부르기도
04
##마뱀
##공간
영화제
이어지는
##페르
##역에
##ass
기구
Car
4월에
##즈니
성공했다
반응을
멸종
보스턴
진격
##리티
갈색
1931년
##olog
화가
주장하는
카라
정부에
루마니아
하나가
프라이
11월에
메달
삶을
대다
위키
도쿄도
스타디움
##베이스
강을
##이상
##군에게
순환
##이게
쿠바
검색
레닌
장르
##하기에
개량
연평균
입법
##재로
##위와
권리
비공
포함되었다
이어서
하인
##eb
블록
차단
##다의
일단
죽음을
소형
지불
팔레
1억
##카가
생태
혈액
원인
##씨를
##rom
모터
우리가
일련의
##당으로
##치오
시작했고
##로지
북미
이즈
코스
##베리
##살이
000명
우에
##서양
소속의
붙어
다이묘
인상
##목으로
담고
정수
##차의
1925년
음반이다
유력
입은
##대신
##아르
##독립
추산으로
칼리
비판을
##학에
08
정식으로
방송을
##대문
7월에
##민의
주된
##ton
##더스
##너스
부르고
오는
재산
대부분을
지칭
전작
나뉘어
광범위
어두
포함된다
구성된다
##힌다
당나라
새벽
##세한
##관에서
관객
백성
##sp
바르셀
갖게
이은
감독은
1922년
1921년
위치에
크루
집필
자가
##크스
##이면
##치기
##가능
코파
##테이
초기에는
교차
##침을
##계와
Bl
일상
공산당
엘리자
EP
공원
정확히
식품
아동
포스트
##비디오
꼬리
##지니아
안내
사건의
골드
상하
1923년
사다
##등급
##단에서
1929년
